00 00 a3 d2 00 e0 df f2  01 7c 40 b9 3f 00 1f 72
c0 ff ff 54 21 08 80 52  01 00 00 b9 a0 00 38 d5
00 1c 40 92 40 00 00 b4  25 00 00 14 00 00 a3 d2
00 e0 df f2 01 7c 40 b9  3f 00 1f 72 c0 ff ff 54
41 08 80 52 01 00 00 b9  00 04 00 58 1f 00 00 91
00 00 a3 d2 00 e0 df f2  01 7c 40 b9 3f 00 1f 72
c0 ff ff 54 61 08 80 52  01 00 00 b9 00 c0 ae d2
00 e0 df f2 01 c0 41 b9  21 78 15 12 01 c0 01 b9
00 00 a3 d2 00 e0 df f2  01 7c 40 b9 3f 00 1f 72
c0 ff ff 54 81 08 80 52  01 00 00 b9 00 00 a3 d2
00 e0 df f2 01 7c 40 b9  3f 00 1f 72 c0 ff ff 54
a1 08 80 52 01 00 00 b9  42 00 00 94 7f 20 03 d5
ff ff ff 17 00 00 00 00  00 60 09 02 00 00 00 00
fd 7b bf a9 fd 03 00 91  00 00 80 d2 00 1c 78 b2
00 a2 18 d5 df 3f 03 d5  c0 f8 01 10 01 40 80 d2
02 00 80 d2 02 84 00 f8  21 04 00 f1 c1 ff ff 54
00 f8 01 10 21 00 80 d2  21 00 7e b2 21 04 78 b2
21 00 76 b2 01 00 00 f9  01 00 a8 d2 21 00 40 b2
21 00 7e b2 21 04 78 b2  21 00 76 b2 01 04 00 f9
01 00 b8 d2 21 00 40 b2  21 00 77 b2 21 00 76 b2
01 0c e0 f2 01 0c 00 f9  00 04 80 d2 00 00 78 b2
00 00 76 b2 00 04 74 b2  40 00 c0 f2 40 20 18 d5
df 3f 03 d5 e0 f4 01 10  00 20 18 d5 df 3f 03 d5
1f 87 08 d5 9f 3f 03 d5  df 3f 03 d5 fd 7b c1 a8
c0 03 5f d6 00 10 38 d5  00 00 40 b2 00 00 7e b2
00 00 74 b2 00 00 7f b2  00 10 18 d5 df 3f 03 d5
c0 03 5f d6 00 10 38 d5  00 f8 7f 92 00 10 18 d5
df 3f 03 d5 c0 03 5f d6  00 00 00 00 00 00 00 00
fd 7b aa a9 00 00 00 d0  fd 03 00 91 1f 90 45 fd
00 21 80 52 f3 53 01 a9  00 00 a2 72 33 00 00 b0
73 02 00 91 e1 63 04 91  f5 5b 02 a9 14 00 00 d0
f7 63 03 a9 17 00 00 d0  f7 02 00 91 ff 8f 00 fd
94 22 00 91 e0 23 01 b9  e0 03 13 aa 05 02 00 94
e1 03 17 aa e0 03 13 aa  4d 02 00 94 e1 03 14 aa
e0 03 13 aa 4a 02 00 94  e0 03 13 aa 01 00 00 d0
21 e0 00 91 46 02 00 94  e0 03 13 aa 01 00 00 d0
21 80 01 91 42 02 00 94  e1 03 14 aa e0 03 13 aa
3f 02 00 94 e1 03 17 aa  e0 03 13 aa 3c 02 00 94
e0 03 13 aa 01 00 00 d0  21 40 02 91 38 02 00 94
e0 03 13 aa 01 00 00 d0  21 e0 02 91 34 02 00 94
e0 03 13 aa 01 00 00 d0  21 80 03 91 30 02 00 94
e0 03 13 aa 01 00 00 d0  21 00 04 91 2c 02 00 94
e0 03 13 aa 01 00 00 d0  21 a0 04 91 28 02 00 94
01 00 00 d0 21 60 05 91  e0 03 13 aa 24 02 00 94
60 62 00 91 70 02 00 94  00 06 00 35 e0 03 13 aa
01 00 00 d0 21 20 06 91  1d 02 00 94 e0 03 13 aa
01 00 00 d0 21 c0 06 91  19 02 00 94 e0 03 13 aa
01 00 00 d0 21 80 07 91  15 02 00 94 e0 03 13 aa
01 00 00 d0 21 20 08 91  11 02 00 94 6e 03 00 94
f5 03 00 2a 60 0e 40 f9  42 03 00 94 f6 03 00 2a
01 00 00 d0 e0 03 13 aa  21 e0 08 91 08 02 00 94
e1 03 15 2a e0 03 13 aa  1d 02 00 94 e0 03 13 aa
01 00 00 d0 21 40 09 91  01 02 00 94 e1 03 16 2a
e0 03 13 aa 16 02 00 94  e1 03 17 aa e0 03 13 aa
fb 01 00 94 60 0e 40 f9  e1 03 15 2a 41 03 00 94
80 2b 00 36 e0 03 13 aa  01 00 00 d0 21 a0 09 91
f3 01 00 94 05 00 00 14  01 00 00 d0 e0 03 13 aa
21 60 0b 91 ee 01 00 94  e0 03 13 aa 01 00 00 d0
21 20 0c 91 ea 01 00 94  e0 03 13 aa 01 00 00 d0
21 c0 0c 91 e6 01 00 94  01 00 00 d0 21 60 0d 91
e0 03 13 aa e2 01 00 94  60 22 01 91 bd 02 00 94
f5 03 00 2a 01 00 00 d0  e0 03 13 aa 21 00 0e 91
db 01 00 94 95 28 00 34  e0 03 13 aa 01 00 00 d0
21 20 10 91 d6 01 00 94  e0 03 13 aa 01 00 00 d0
21 a0 10 91 d2 01 00 94  e0 03 13 aa 01 00 00 d0
21 60 11 91 ce 01 00 94  e0 03 13 aa 01 00 00 d0
21 00 12 91 ca 01 00 94  e1 03 14 aa e0 03 13 aa
c7 01 00 94 14 00 00 d0  e0 03 13 aa 01 00 00 d0
21 a0 12 91 c2 01 00 94  e0 03 13 aa 01 00 00 d0
21 20 13 91 be 01 00 94  e0 03 13 aa 01 00 00 d0
21 80 13 91 ba 01 00 94  e0 03 13 aa 01 00 00 d0
21 00 14 91 b6 01 00 94  e0 03 13 aa 94 02 15 91
01 00 00 d0 21 a0 14 91  b1 01 00 94 e1 03 14 aa
e0 03 13 aa ae 01 00 94  e0 03 13 aa a2 01 00 94
15 1c 00 12 e1 03 15 2a  e0 03 13 aa 8d 01 00 94
01 00 00 d0 e0 03 13 aa  21 20 15 91 a4 01 00 94
bf ca 00 71 a0 25 00 54  bf ce 00 71 60 22 00 54
e0 03 13 aa 01 00 00 d0  21 40 16 91 f9 6b 04 a9
16 00 00 d0 fb 73 05 a9  99 01 00 94 e0 03 13 aa
01 00 00 d0 21 e0 16 91  95 01 00 94 f8 a3 90 52
00 00 00 d0 00 c0 17 91  e0 33 00 f9 00 00 00 d0
00 20 18 91 e0 37 00 f9  00 00 00 d0 00 40 18 91
e0 3b 00 f9 00 00 00 d0  00 80 18 91 e0 3f 00 f9
00 00 00 d0 00 e0 18 91  e0 43 00 f9 00 00 00 d0
00 20 19 91 e0 47 00 f9  00 00 00 d0 00 40 19 91
e0 4b 00 f9 00 00 00 d0  00 80 19 91 e0 4f 00 f9
00 00 00 d0 00 c0 19 91  e0 63 00 f9 00 00 00 d0
00 20 1a 91 e0 67 00 f9  00 00 00 d0 00 80 1a 91
e0 6b 00 f9 00 00 00 d0  00 e0 1a 91 e0 73 00 f9
00 00 00 d0 00 00 1b 91  e0 83 00 f9 00 00 00 d0
00 60 1b 91 e0 6f 00 f9  00 00 00 d0 00 c0 1b 91
e0 57 00 f9 00 00 00 d0  00 e0 2c 91 e0 53 00 f9
00 00 00 d0 00 00 1c 91  e0 5b 00 f9 00 00 00 d0
00 40 1c 91 e0 5f 00 f9  00 00 00 d0 00 80 1c 91
e0 77 00 f9 00 00 00 d0  00 40 1d 91 b9 99 99 52
d6 c2 18 91 7c 22 01 91  e0 87 00 f9 00 00 00 d0
00 e0 1d 91 15 00 80 52  78 3d aa 72 9b 0c 80 52
1a 19 80 52 99 99 b9 72  e0 7b 00 f9 00 00 00 d0
00 c0 1e 91 e0 7f 00 f9  e0 03 13 aa 3e 01 00 94
00 1c 00 12 1f 80 00 71  04 18 4d 7a 60 03 00 54
1f c4 01 71 21 ff ff 54  e0 03 13 aa 01 00 00 d0
21 a0 1f 91 3e 01 00 94  01 00 00 d0 e0 03 13 aa
21 00 20 91 3a 01 00 94  e0 03 13 aa 2e 01 00 94
01 1c 00 12 3f 34 00 71  21 01 00 54 e1 03 14 aa
e0 03 13 aa 32 01 00 94  e0 03 13 aa 26 01 00 94
01 1c 00 12 3f 34 00 71  20 ff ff 54 e0 03 13 aa
10 01 00 94 f1 ff ff 17  e1 33 40 f9 b5 06 00 11
e0 03 13 aa 26 01 00 94  e1 03 15 2a e0 03 13 aa
3b 01 00 94 e1 37 40 f9  e0 03 13 aa 20 01 00 94
e1 a3 04 91 e0 03 1c aa  24 02 00 94 a1 12 15 0b
20 7c b8 9b 00 fc 65 d3  00 84 1b 1b a1 06 15 0b
e0 2b 01 b9 a1 0a 01 0b  20 7c b8 9b 00 fc 66 d3
00 84 1a 1b e1 02 80 52  a1 7e 01 1b 00 c8 00 11
e0 2f 01 b9 20 7c b9 9b  00 fc 66 d3 00 08 00 0b
20 10 00 4b e0 33 01 b9  e1 3b 40 f9 e0 03 13 aa
07 01 00 94 e1 3f 40 f9  e0 03 13 aa 04 01 00 94
e1 2b 41 b9 e0 03 13 aa  19 01 00 94 e1 03 16 aa
e0 03 13 aa fe 00 00 94  e1 43 40 f9 e0 03 13 aa
fb 00 00 94 e1 2f 41 b9  e0 03 13 aa 10 01 00 94
e1 47 40 f9 e0 03 13 aa  f5 00 00 94 e1 4b 40 f9
e0 03 13 aa f2 00 00 94  e1 33 41 b9 e0 03 13 aa
07 01 00 94 e1 03 16 aa  e0 03 13 aa ec 00 00 94
e1 4f 40 f9 e0 03 13 aa  e9 00 00 94 e1 37 41 b9
e0 03 13 aa fe 00 00 94  e1 03 16 aa e0 03 13 aa
e3 00 00 94 e2 43 04 91  e1 a3 04 91 60 62 00 91
3e 01 00 94 a0 00 00 34  e1 03 14 aa e0 03 13 aa
db 00 00 94 91 ff ff 17  e1 63 40 f9 e0 03 13 aa
d7 00 00 94 e1 67 40 f9  e0 03 13 aa d4 00 00 94
e1 43 44 39 e0 03 13 aa  e9 00 00 94 e1 03 17 aa
e0 03 13 aa ce 00 00 94  e1 6b 40 f9 e0 03 13 aa
cb 00 00 94 e0 47 44 39  00 0a 00 34 1f 04 00 71
80 0d 00 54 e1 6f 40 f9  e0 03 13 aa c4 00 00 94
e1 57 40 f9 e0 03 13 aa  c1 00 00 94 e0 53 40 f9
e1 03 05 91 1e 7c 40 ad  e0 4b 44 39 fe 7f 0a ad
00 04 7d d3 21 68 60 f8  e0 03 13 aa b8 00 00 94
e1 03 17 aa e0 03 13 aa  b5 00 00 94 e1 5b 40 f9
e0 03 13 aa b2 00 00 94  e1 4f 44 39 e0 03 13 aa
c7 00 00 94 e1 03 17 aa  e0 03 13 aa ac 00 00 94
e1 5f 40 f9 e0 03 13 aa  a9 00 00 94 e0 47 44 39
1f 04 00 71 60 0a 00 54  1f 08 00 71 a0 0a 00 54
e0 4b 44 39 1f 0c 00 71  40 09 00 54 60 f8 ff 35
e1 7f 40 f9 e0 03 13 aa  9d 00 00 94 bf ff ff 17
e0 03 13 aa 01 00 00 d0  21 60 0a 91 98 00 00 94
aa fe ff 17 e0 03 13 aa  01 00 00 d0 21 a0 0e 91
93 00 00 94 e0 03 13 aa  01 00 00 d0 21 60 0f 91
8f 00 00 94 b5 fe ff 17  01 00 00 d0 e0 03 13 aa
21 c0 15 91 8a 00 00 94  e0 03 13 aa 7e 00 00 94
01 1c 00 12 3f 34 00 71  21 01 00 54 e1 03 14 aa
e0 03 13 aa 82 00 00 94  e0 03 13 aa 76 00 00 94
01 1c 00 12 3f 34 00 71  20 ff ff 54 e0 03 13 aa
60 00 00 94 f1 ff ff 17  e1 73 40 f9 e0 03 13 aa
77 00 00 94 b3 ff ff 17  e0 03 13 aa d9 01 00 94
e0 03 13 aa 5f 02 00 94  01 00 00 d0 e0 03 13 aa
21 40 15 91 6e 00 00 94  1f 20 03 d5 1f 20 03 d5
e0 03 13 aa 60 00 00 94  01 1c 00 12 3f 34 00 71
21 01 00 54 e1 03 14 aa  e0 03 13 aa 64 00 00 94
e0 03 13 aa 58 00 00 94  01 1c 00 12 3f 34 00 71
20 ff ff 54 e0 03 13 aa  42 00 00 94 f1 ff ff 17
e1 83 40 f9 e0 03 13 aa  59 00 00 94 95 ff ff 17
e1 7b 40 f9 e0 03 13 aa  55 00 00 94 77 ff ff 17
e1 77 40 f9 e0 03 13 aa  51 00 00 94 ad ff ff 17
e1 87 40 f9 e0 03 13 aa  4d 00 00 94 a9 ff ff 17
1f 00 00 f1 24 18 40 fa  40 05 00 54 e2 03 00 aa
23 00 40 b9 25 00 40 f9  24 08 40 b9 43 84 00 f8
05 04 00 f9 44 08 00 b9  22 04 40 b9 01 c0 86 52
c1 2d a0 72 7f 04 00 b9  42 6c 1c 53 21 08 c2 1a
bf 3f 03 d5 02 00 40 f9  03 10 80 52 43 0c 00 b9
bf 3f 03 d5 02 00 40 f9  23 1c 00 12 43 00 00 b9
bf 3f 03 d5 02 00 40 f9  21 3c 48 d3 41 04 00 b9
bf 3f 03 d5 02 00 40 f9  61 00 80 52 41 0c 00 b9
bf 3f 03 d5 02 00 40 f9  e3 00 80 52 43 08 00 b9
bf 3f 03 d5 02 00 40 f9  41 10 00 b9 bf 3f 03 d5
21 00 80 52 01 50 00 39  00 00 80 52 c0 03 5f d6
20 00 80 52 c0 03 5f d6  1f 20 03 d5 1f 20 03 d5
02 00 40 f9 21 1c 00 12  bf 3f 03 d5 42 14 40 b9
22 01 28 37 1f 20 03 d5  1f 20 03 d5 1f 20 03 d5
3f 20 03 d5 02 00 40 f9  bf 3f 03 d5 42 14 40 b9
82 ff 2f 36 00 00 40 f9  01 00 00 b9 bf 3f 03 d5
c0 03 5f d6 02 00 00 14  3f 20 03 d5 01 00 40 f9
bf 3f 03 d5 21 14 40 b9  81 ff 07 36 00 00 40 f9
bf 3f 03 d5 00 00 40 b9  c0 03 5f d6 23 00 40 39
c3 02 00 34 1f 20 03 d5  1f 20 03 d5 1f 20 03 d5
02 00 40 f9 21 04 00 91  bf 3f 03 d5 42 14 40 b9
22 01 28 37 1f 20 03 d5  1f 20 03 d5 1f 20 03 d5
3f 20 03 d5 02 00 40 f9  bf 3f 03 d5 42 14 40 b9
82 ff 2f 36 02 00 40 f9  43 00 00 b9 bf 3f 03 d5
23 00 40 39 e3 fd ff 35  c0 03 5f d6 05 00 00 d0
a5 80 2d 91 83 07 80 52  1f 20 03 d5 1f 20 03 d5
22 24 c3 9a 42 0c 40 92  a4 68 62 38 02 00 40 f9
bf 3f 03 d5 42 14 40 b9  e2 00 28 37 1f 20 03 d5
3f 20 03 d5 02 00 40 f9  bf 3f 03 d5 42 14 40 b9
82 ff 2f 36 02 00 40 f9  44 00 00 b9 bf 3f 03 d5
63 10 00 51 7f 10 00 31  c1 fd ff 54 c0 03 5f d6
00 00 40 f9 bf 3f 03 d5  00 14 40 b9 00 00 00 12
c0 03 5f d6 00 00 40 f9  bf 3f 03 d5 00 14 40 b9
00 14 45 d3 c0 03 5f d6  1f 20 03 d5 1f 20 03 d5
60 00 80 52 c0 03 5f d6  60 00 80 52 c0 03 5f d6
00 00 00 00 00 00 00 00  00 00 00 00 00 00 00 00
00 7c a0 0a c0 03 5f d6  00 7c 02 13 21 00 a0 52
00 20 40 11 1f 40 40 71  00 d0 81 1a 00 7c a0 0a
c0 03 5f d6 e0 01 00 b4  01 00 00 d0 21 00 2f 91
01 00 00 f9 01 00 00 d0  1f fc 00 a9 3f 94 45 fd
01 10 80 d2 21 e0 bf f2  01 10 00 f9 21 00 80 52
1f 0c 00 fd 01 a0 00 39  00 00 80 52 c0 03 5f d6
20 00 80 52 c0 03 5f d6  3f 00 00 f1 44 18 40 fa
04 18 40 fa c0 0d 00 54  03 a0 40 39 e8 03 00 aa
60 00 80 52 23 0d 00 36  3a 00 c0 3d 00 00 00 d0
ff 03 01 d1 64 ba 89 52  19 e0 c2 3d 00 00 00 d0
5a 57 30 4f 44 0c a2 72  18 e4 c2 3d e7 83 00 91
1f 04 00 4f e9 03 07 aa  40 c3 b9 2e 59 c3 b9 6e
19 58 99 4e 38 47 b8 6e  f8 03 80 3d 23 00 42 29
63 3c 10 53 00 3c 10 53  63 7c a4 9b 63 fc 66 d3
e3 13 00 b9 a3 99 99 52  83 99 b9 72 00 7c a3 9b
00 fc 63 d3 e0 17 00 b9  00 01 40 f9 06 00 03 91
04 80 03 91 e3 03 06 aa  e5 03 00 91 7e 04 d4 3c
7c 04 c2 3c bd c8 df 4d  9b c3 bd 0e 9c c3 bd 4e
7b 87 30 0f 9b 87 30 4f  de 87 bb 4e df 00 03 eb
01 ff ff 54 de 67 bf 4e  c6 40 00 91 3e 05 81 3c
9f 00 06 eb 01 fe ff 54  1c 58 c0 3d e3 03 04 aa
00 80 05 91 1f 20 03 d5  1f 20 03 d5 1f 20 03 d5
7e 04 c1 3c fd c8 df 4d  df c3 bd 0e de c3 bd 4e
ff 87 30 0f df 87 30 4f  9c 87 bf 4e 7f 00 00 eb
01 ff ff 54 1f 24 04 4f  3e 44 00 4f 9f 17 3e 4f
ff 6f be 4e 1e 04 00 4f  ff 67 be 4e e0 03 26 1e
e3 03 26 1e 00 5c 18 53  00 00 03 4b e3 3f 1c 0e
00 7c 10 13 40 00 00 39  60 5c 18 53 00 00 03 4b
43 00 80 52 00 7c 10 13  40 0c 00 39 e0 3f 0c 0e
00 58 4f d3 1f 08 00 71  00 90 83 1a e3 3f 14 0e
40 04 00 39 60 00 80 52  63 04 03 0b 63 5c 50 d3
7f 0c 00 71 63 90 80 1a  43 08 00 39 20 08 40 f9
24 14 40 a9 04 95 00 a9  41 00 40 b9 00 0d 00 f9
00 25 40 b9 00 04 00 11  01 01 04 29 00 00 80 52
ff 03 01 91 c0 03 5f d6  c0 03 5f d6 20 00 80 52
c0 03 5f d6 1f 20 03 d5  1f 20 03 d5 1f 20 03 d5
c0 03 5f d6 00 00 00 00  00 00 00 00 00 00 00 00
00 00 00 00 00 00 00 00  00 00 00 00 00 00 00 00
a0 01 00 b4 21 00 80 d2  01 9c 1b d5 21 9c 1b d5
02 9d 3b d5 02 7c 00 a9  02 00 00 d0 5f 98 45 fd
1f 7c 01 a9 1f 10 00 fd  01 28 00 b9 00 00 80 52
c0 03 5f d6 20 00 80 52  c0 03 5f d6 1f 20 03 d5
03 9d 3b d5 01 08 40 a9  61 00 01 cb 42 00 01 8b
03 08 00 a9 21 08 01 8b  21 08 01 8b 20 f4 44 d3
a1 6b 93 d2 c1 a1 bc f2  81 31 d5 f2 81 47 e0 f2
00 7c c1 9b 81 0c 80 52  00 fc 4b d3 1f 90 01 71
00 90 81 1a c0 03 5f d6  80 0c 80 52 c0 03 5f d6
80 02 80 52 c0 03 5f d6  1f 20 03 d5 1f 20 03 d5
40 06 80 52 c0 03 5f d6  1f 00 00 f1 24 18 40 fa
80 04 00 54 04 9d 3b d5  02 0c 40 a9 82 00 02 cb
63 00 02 8b 04 0c 00 a9  42 08 02 8b a3 6b 93 d2
42 08 02 8b c3 a1 bc f2  83 31 d5 f2 42 f4 44 d3
83 47 e0 f2 42 7c c3 9b  83 0c 80 52 42 fc 4b d3
5f 90 01 71 42 90 83 1a  22 00 00 b9 82 0c 80 d2
82 02 c0 f2 22 40 00 f8  42 06 80 d2 22 c0 00 f8
22 00 80 52 22 14 00 b9  02 50 00 91 24 14 40 a9
21 08 40 f9 44 14 00 a9  01 40 02 f8 01 10 40 b9
21 04 00 11 01 10 00 b9  00 00 80 52 c0 03 5f d6
20 00 80 52 c0 03 5f d6  00 00 00 00 00 00 00 00
00 00 00 00 00 00 00 00  00 00 00 00 00 00 00 00
40 02 00 b4 04 00 00 b0  84 c0 34 91 03 00 80 12
02 00 80 d2 1f 20 03 d5  1f 20 03 d5 1f 20 03 d5
01 68 62 38 42 04 00 91  21 00 03 4a 21 1c 40 92
81 78 61 b8 23 20 43 4a  5f c0 05 f1 21 ff ff 54
e0 03 23 2a c0 03 5f d6  00 00 80 52 c0 03 5f d6
20 02 00 b4 05 00 00 b0  a5 c0 34 91 04 00 80 12
03 00 80 d2 02 68 63 38  63 04 00 91 42 00 04 4a
42 1c 40 92 a2 78 62 b8  44 20 44 4a 7f c0 05 f1
21 ff ff 54 e4 03 24 2a  3f 00 04 6b e0 17 9f 1a
c0 03 5f d6 04 00 80 52  3f 00 04 6b e0 17 9f 1a
c0 03 5f d6 e0 80 83 52  e0 d7 a1 72 c0 03 5f d6
00 00 00 00 00 00 00 00  00 00 00 00 00 00 00 00
fd 7b be a9 01 00 00 b0  21 20 21 91 fd 03 00 91
f3 53 01 a9 f3 03 00 aa  95 fe ff 97 20 00 80 d2
00 9c 1b d5 20 9c 1b d5  14 9d 3b d5 01 00 00 b0
e0 03 13 aa 21 c0 21 91  8d fe ff 97 e1 03 14 aa
e0 03 13 aa a2 fe ff 97  e0 03 13 aa 01 00 00 b0
21 00 00 91 86 fe ff 97  21 00 00 90 20 00 02 91
01 00 00 b0 3f e8 c2 3d  1f 7c 00 a9 01 00 00 b0
14 10 00 f9 21 60 22 91  1f 28 00 b9 1f 04 80 3d
e0 03 13 aa f3 53 41 a9  fd 7b c2 a8 78 fe ff 17
e0 00 00 b4 21 00 00 90  21 00 02 91 3f 08 c0 3d
3e 74 40 ad 1f 08 80 3d  1e 74 00 ad c0 03 5f d6
fd 7b bd a9 01 00 00 b0  21 00 23 91 fd 03 00 91
f3 53 01 a9 f3 03 00 aa  f5 5b 02 a9 36 00 00 90
67 fe ff 97 e0 03 13 aa  01 00 00 b0 21 a0 23 91
63 fe ff 97 c1 42 40 f9  d4 02 02 91 e0 03 13 aa
15 00 00 b0 76 fe ff 97  e0 03 13 aa 01 00 00 b0
21 00 00 91 5a fe ff 97  e0 03 13 aa 01 00 00 b0
21 e0 23 91 56 fe ff 97  81 0a 40 f9 e0 03 13 aa
6b fe ff 97 a1 22 24 91  e0 03 13 aa 50 fe ff 97
e0 03 13 aa 01 00 00 b0  21 60 24 91 4c fe ff 97
81 0e 40 f9 e0 03 13 aa  61 fe ff 97 a1 22 24 91
e0 03 13 aa 46 fe ff 97  e0 03 13 aa 01 00 00 b0
21 a0 24 91 42 fe ff 97  81 2a 40 b9 e0 03 13 aa
57 fe ff 97 e0 03 13 aa  01 00 00 b0 21 c0 18 91
3b fe ff 97 c0 42 40 f9  40 01 00 b5 80 c2 40 39
c0 02 00 37 f5 5b 42 a9  e0 03 13 aa f3 53 41 a9
01 00 00 b0 fd 7b c3 a8  21 80 25 91 30 fe ff 17
96 06 40 f9 01 00 00 b0  21 e0 24 91 d6 0a c0 9a
e0 03 13 aa 2a fe ff 97  e0 03 13 aa e1 03 16 aa
3f fe ff 97 e0 03 13 aa  a1 22 24 91 24 fe ff 97
80 c2 40 39 80 fd 07 36  e0 03 13 aa 01 00 00 b0
21 20 25 91 1e fe ff 97  e0 03 13 aa 01 00 00 b0
f3 53 41 a9 21 80 25 91  f5 5b 42 a9 fd 7b c3 a8
17 fe ff 17 1f 20 03 d5  1f 20 03 d5 1f 20 03 d5
fd 7b ba a9 01 00 00 b0  21 20 26 91 fd 03 00 91
f3 53 01 a9 f4 03 00 aa  f5 5b 02 a9 f7 63 03 a9
f9 6b 04 a9 fb 73 05 a9  09 fe ff 97 e0 03 14 aa
01 00 00 b0 21 a0 26 91  05 fe ff 97 e0 03 14 aa
01 00 00 b0 21 60 27 91  01 fe ff 97 00 9d 3b d5
f8 d4 97 d2 f5 2f 9a d2  f8 ba a0 f2 3b 00 00 90
15 1e a1 f2 f6 2f 9a 92  58 d8 d3 f2 f7 e7 02 b2
7b 03 02 91 b9 06 00 91  f6 e1 be f2 18 a2 fc f2
b7 99 99 f2 1c 9d 3b d5  7a 13 40 f9 9a 03 1a cb
5f 03 15 eb c9 07 00 54  00 00 00 b0 7e 03 c0 3d
1f ec c2 3d 60 0b 40 f9  5f 1f 18 4e de 87 ff 4e
7e 03 80 3d 1f 00 1a eb  49 00 00 54 7a 0b 00 f9
60 0f 40 f9 1f 00 1a eb  42 00 00 54 7a 0f 00 f9
21 03 1a cb 40 03 16 ab  20 40 80 9a 00 08 00 8b
00 08 00 8b 13 f4 7e d3  60 2b 40 b9 73 7e d8 9b
73 fe 5b d3 1f 00 13 6b  42 00 00 54 73 2b 00 b9
e0 03 14 aa 01 00 00 b0  21 e0 27 91 d0 fd ff 97
61 03 40 f9 e0 03 14 aa  e5 fd ff 97 e0 03 14 aa
01 00 00 b0 21 00 28 91  c9 fd ff 97 e1 03 1a aa
e0 03 14 aa de fd ff 97  e0 03 14 aa 01 00 00 b0
21 40 28 91 c2 fd ff 97  e1 03 13 2a e0 03 14 aa
d7 fd ff 97 e0 03 14 aa  01 00 00 b0 21 c0 18 91
bb fd ff 97 60 c3 40 39  7c 13 00 f9 c0 04 00 36
60 03 40 f9 e1 e7 01 b2  21 33 e3 f2 00 7c 17 9b
00 04 c0 93 1f 00 01 eb  e9 02 00 54 e0 03 14 aa
e0 fd ff 97 c0 00 00 36  e0 03 14 aa a2 fd ff 97
00 1c 00 12 1f 0c 00 71  60 00 00 54 3f 20 03 d5
b5 ff ff 17 e0 03 14 aa  01 00 00 b0 21 20 29 91
a3 fd ff 97 e0 03 14 aa  f5 5b 42 a9 f3 53 41 a9
f7 63 43 a9 f9 6b 44 a9  fb 73 45 a9 fd 7b c6 a8
2c ff ff 17 e0 03 14 aa  01 00 00 b0 21 80 28 91
97 fd ff 97 42 01 80 52  41 06 80 52 40 00 80 52
60 00 00 94 60 03 40 f9  e1 e7 01 b2 21 33 e3 f2
00 7c 17 9b 00 04 c0 93  1f 00 01 eb 88 fb ff 54
e0 03 14 aa 1b ff ff 97  d9 ff ff 17 21 00 00 90
00 1c 00 12 20 c0 02 39  40 00 00 36 09 00 00 14
10 00 00 14 00 00 00 00  00 00 00 00 00 00 00 00
00 00 00 00 00 00 00 00  00 00 00 00 00 00 00 00
21 00 00 90 20 e0 02 91  3f 5c 00 f9 1f 08 00 b9
1f 30 00 39 c0 03 5f d6  1f 20 03 d5 1f 20 03 d5
20 00 00 90 01 b8 40 b9  3f 04 00 71 a1 00 00 54
01 10 38 d5 21 00 7e b2  01 10 18 d5 df 3f 03 d5
01 e0 02 91 1f b8 00 b9  3f 30 00 39 c0 03 5f d6
00 10 38 d5 00 f8 7d 92  00 10 18 d5 df 3f 03 d5
c0 03 5f d6 00 10 38 d5  00 00 7e b2 00 10 18 d5
df 3f 03 d5 c0 03 5f d6  1f 20 03 d5 1f 20 03 d5
a0 01 00 34 01 00 80 52  1f 20 03 d5 1f 20 03 d5
1f 20 03 d5 1f 20 03 d5  1f 20 03 d5 1f 20 03 d5
1f 20 03 d5 1f 20 03 d5  21 04 00 11 1f 00 01 6b
c1 fe ff 54 c0 03 5f d6  1f 20 03 d5 1f 20 03 d5
80 02 00 34 ff 03 10 d1  04 80 88 52 e5 03 00 91
06 00 80 52 e7 7f 88 12  81 00 07 0b e2 03 06 2a
23 24 00 12 21 44 00 11  a2 48 23 38 42 04 00 11
3f 00 04 6b 61 ff ff 54  c6 04 00 11 84 94 00 11
1f 00 06 6b a1 fe ff 54  ff 03 10 91 c0 03 5f d6
c0 03 5f d6 1f 20 03 d5  1f 20 03 d5 1f 20 03 d5
23 00 00 90 63 e0 02 91  60 04 00 29 62 08 00 b9
22 00 80 52 62 30 00 39  1f 08 00 71 80 01 00 54
1f 0c 00 71 00 01 00 54  1f 04 00 71 a1 00 00 54
00 10 38 d5 00 f8 7d 92  00 10 18 d5 df 3f 03 d5
c0 03 5f d6 e0 03 01 2a  d6 ff ff 17 00 e2 84 52
20 7c 00 1b 01 00 80 52  40 ff ff 34 1f 20 03 d5
1f 20 03 d5 1f 20 03 d5  1f 20 03 d5 1f 20 03 d5
1f 20 03 d5 1f 20 03 d5  1f 20 03 d5 1f 20 03 d5
21 04 00 11 1f 00 01 6b  c1 fe ff 54 c0 03 5f d6
00 00 00 00 00 00 00 00  00 00 00 00 00 00 00 00
21 00 00 90 20 64 00 f9  c0 03 5f d6 fd 7b bd a9
fd 03 00 91 f3 53 01 a9  33 00 00 90 63 66 40 f9
83 05 00 b4 f4 03 00 2a  e0 03 03 aa f5 5b 02 a9
f5 03 01 aa f6 03 02 aa  01 00 00 b0 21 e0 29 91
fb fc ff 97 9f 12 00 71  a8 04 00 54 00 00 00 d0
00 c0 04 91 01 58 74 f8  60 66 40 f9 80 03 00 b4
f3 fc ff 97 60 66 40 f9  20 03 00 b4 01 00 00 b0
21 20 2a 91 ee fc ff 97  60 66 40 f9 80 02 00 b4
e1 03 15 aa ea fc ff 97  60 66 40 f9 00 02 00 b4
01 00 00 b0 21 60 2a 91  e5 fc ff 97 60 66 40 f9
60 01 00 b4 e1 03 16 aa  e1 fc ff 97 60 66 40 f9
e0 00 00 b4 f5 5b 42 a9  01 00 00 b0 f3 53 41 a9
21 a0 2a 91 fd 7b c3 a8  d9 fc ff 17 f5 5b 42 a9
f3 53 41 a9 fd 7b c3 a8  c0 03 5f d6 00 00 00 b0
01 c0 29 91 dd ff ff 17  fd 7b bd a9 fd 03 00 91
f3 53 01 a9 33 00 00 90  62 66 40 f9 c2 03 00 b4
f4 03 01 aa 01 00 00 b0  21 c0 2a 91 f5 13 00 f9
f5 03 00 aa e0 03 02 aa  c5 fc ff 97 60 66 40 f9
80 02 00 b4 e1 03 15 aa  c1 fc ff 97 60 66 40 f9
00 02 00 b4 01 00 00 b0  21 40 2b 91 bc fc ff 97
60 66 40 f9 60 01 00 b4  e1 03 14 aa d0 fc ff 97
60 66 40 f9 e0 00 00 b4  f5 13 40 f9 01 00 00 b0
f3 53 41 a9 21 80 2b 91  fd 7b c3 a8 b0 fc ff 17
f5 13 40 f9 f3 53 41 a9  fd 7b c3 a8 c0 03 5f d6
fd 7b bc a9 fd 03 00 91  f3 53 01 a9 33 00 00 90
64 66 40 f9 24 07 00 b4  f4 03 00 2a e0 03 04 aa
f5 5b 02 a9 f5 03 01 aa  f6 03 02 aa 01 00 00 b0
21 e0 29 91 f7 1b 00 f9  f7 03 03 aa 9c fc ff 97
9f 12 00 71 08 06 00 54  00 00 00 d0 00 c0 04 91
01 58 74 f8 60 66 40 f9  c0 04 00 b4 94 fc ff 97
60 66 40 f9 60 04 00 b4  01 00 00 b0 21 20 2a 91
8f fc ff 97 60 66 40 f9  c0 03 00 b4 e1 03 15 aa
8b fc ff 97 60 66 40 f9  40 03 00 b4 01 00 00 b0
21 60 2a 91 86 fc ff 97  60 66 40 f9 a0 02 00 b4
e1 03 16 aa 82 fc ff 97  60 66 40 f9 20 02 00 b4
01 00 00 b0 21 a0 2b 91  7d fc ff 97 60 66 40 f9
80 01 00 b4 e1 03 17 aa  91 fc ff 97 60 66 40 f9
00 01 00 b4 f7 1b 40 f9  01 00 00 b0 f5 5b 42 a9
21 80 2b 91 f3 53 41 a9  fd 7b c4 a8 70 fc ff 17
f5 5b 42 a9 f7 1b 40 f9  f3 53 41 a9 fd 7b c4 a8
c0 03 5f d6 00 00 00 b0  01 c0 29 91 d2 ff ff 17
00 00 00 00 00 00 00 00  00 00 00 00 00 00 00 00
00 00 00 00 00 00 00 00  00 00 00 00 00 00 00 00
00 00 00 00 00 00 00 00  00 00 00 00 00 00 00 00
00 00 00 00 00 00 00 00  00 00 00 00 00 00 00 00
00 00 00 00 00 00 00 00  00 00 00 00 00 00 00 00
00 00 00 00 00 00 00 00  00 00 00 00 00 00 00 00
00 00 00 00 00 00 00 00  00 00 00 00 00 00 00 00
00 00 00 00 00 00 00 00  00 00 00 00 00 00 00 00
00 00 00 00 00 00 00 00  00 00 00 00 00 00 00 00
00 00 00 00 00 00 00 00  00 00 00 00 00 00 00 00
00 00 00 00 00 00 00 00  00 00 00 00 00 00 00 00
00 00 00 00 00 00 00 00  00 00 00 00 00 00 00 00
00 00 00 00 00 00 00 00  00 00 00 00 00 00 00 00
00 00 00 00 00 00 00 00  00 00 00 00 00 00 00 00
00 00 00 00 00 00 00 00  00 00 00 00 00 00 00 00
00 00 00 00 00 00 00 00  00 00 00 00 00 00 00 00
00 00 00 00 00 00 00 00  00 00 00 00 00 00 00 00
00 00 00 00 00 00 00 00  00 00 00 00 00 00 00 00
00 00 00 00 00 00 00 00  00 00 00 00 00 00 00 00
00 00 00 00 00 00 00 00  00 00 00 00 00 00 00 00
00 00 00 00 00 00 00 00  00 00 00 00 00 00 00 00
00 00 00 00 00 00 00 00  00 00 00 00 00 00 00 00
00 00 00 00 00 00 00 00  00 00 00 00 00 00 00 00
00 00 00 00 00 00 00 00  00 00 00 00 00 00 00 00
00 00 00 00 00 00 00 00  00 00 00 00 00 00 00 00
00 00 00 00 00 00 00 00  00 00 00 00 00 00 00 00
00 00 00 00 00 00 00 00  00 00 00 00 00 00 00 00
00 00 00 00 00 00 00 00  00 00 00 00 00 00 00 00
00 00 00 00 00 00 00 00  00 00 00 00 00 00 00 00
00 00 00 00 00 00 00 00  00 00 00 00 00 00 00 00
00 00 00 00 00 00 00 00  00 00 00 00 00 00 00 00
00 00 00 00 00 00 00 00  00 00 00 00 00 00 00 00
00 00 00 00 00 00 00 00  00 00 00 00 00 00 00 00
00 00 00 00 00 00 00 00  00 00 00 00 00 00 00 00
00 00 00 00 00 00 00 00  00 00 00 00 00 00 00 00
00 00 00 00 00 00 00 00  00 00 00 00 00 00 00 00
00 00 00 00 00 00 00 00  00 00 00 00 00 00 00 00
00 00 00 00 00 00 00 00  00 00 00 00 00 00 00 00
00 00 00 00 00 00 00 00  00 00 00 00 00 00 00 00
00 00 00 00 00 00 00 00  00 00 00 00 00 00 00 00
00 00 00 00 00 00 00 00  00 00 00 00 00 00 00 00
00 00 00 00 00 00 00 00  00 00 00 00 00 00 00 00
00 00 00 00 00 00 00 00  00 00 00 00 00 00 00 00
00 00 00 00 00 00 00 00  00 00 00 00 00 00 00 00
00 00 00 00 00 00 00 00  00 00 00 00 00 00 00 00
00 00 00 00 00 00 00 00  00 00 00 00 00 00 00 00
00 00 00 00 00 00 00 00  00 00 00 00 00 00 00 00
00 00 00 00 00 00 00 00  00 00 00 00 00 00 00 00
00 00 00 00 00 00 00 00  00 00 00 00 00 00 00 00
00 00 00 00 00 00 00 00  00 00 00 00 00 00 00 00
00 00 00 00 00 00 00 00  00 00 00 00 00 00 00 00
00 00 00 00 00 00 00 00  00 00 00 00 00 00 00 00
00 00 00 00 00 00 00 00  00 00 00 00 00 00 00 00
00 00 00 00 00 00 00 00  00 00 00 00 00 00 00 00
00 00 00 00 00 00 00 00  00 00 00 00 00 00 00 00
00 00 00 00 00 00 00 00  00 00 00 00 00 00 00 00
00 00 00 00 00 00 00 00  00 00 00 00 00 00 00 00
00 00 00 00 00 00 00 00  00 00 00 00 00 00 00 00
00 00 00 00 00 00 00 00  00 00 00 00 00 00 00 00
00 00 00 00 00 00 00 00  00 00 00 00 00 00 00 00
00 00 00 00 00 00 00 00  00 00 00 00 00 00 00 00
00 00 00 00 00 00 00 00  00 00 00 00 00 00 00 00
00 00 00 00 00 00 00 00  00 00 00 00 00 00 00 00
00 00 00 00 00 00 00 00  00 00 00 00 00 00 00 00
00 00 00 00 00 00 00 00  00 00 00 00 00 00 00 00
00 00 00 00 00 00 00 00  00 00 00 00 00 00 00 00
00 00 00 00 00 00 00 00  00 00 00 00 00 00 00 00
00 00 00 00 00 00 00 00  00 00 00 00 00 00 00 00
00 00 00 00 00 00 00 00  00 00 00 00 00 00 00 00
00 00 00 00 00 00 00 00  00 00 00 00 00 00 00 00
00 00 00 00 00 00 00 00  00 00 00 00 00 00 00 00
00 00 00 00 00 00 00 00  00 00 00 00 00 00 00 00
00 00 00 00 00 00 00 00  00 00 00 00 00 00 00 00
00 00 00 00 00 00 00 00  00 00 00 00 00 00 00 00
00 00 00 00 00 00 00 00  00 00 00 00 00 00 00 00
00 00 00 00 00 00 00 00  00 00 00 00 00 00 00 00
00 00 00 00 00 00 00 00  00 00 00 00 00 00 00 00
00 00 00 00 00 00 00 00  00 00 00 00 00 00 00 00
00 00 00 00 00 00 00 00  00 00 00 00 00 00 00 00
00 00 00 00 00 00 00 00  00 00 00 00 00 00 00 00
00 00 00 00 00 00 00 00  00 00 00 00 00 00 00 00
00 00 00 00 00 00 00 00  00 00 00 00 00 00 00 00
00 00 00 00 00 00 00 00  00 00 00 00 00 00 00 00
00 00 00 00 00 00 00 00  00 00 00 00 00 00 00 00
00 00 00 00 00 00 00 00  00 00 00 00 00 00 00 00
00 00 00 00 00 00 00 00  00 00 00 00 00 00 00 00
00 00 00 00 00 00 00 00  00 00 00 00 00 00 00 00
00 00 00 00 00 00 00 00  00 00 00 00 00 00 00 00
00 00 00 00 00 00 00 00  00 00 00 00 00 00 00 00
00 00 00 00 00 00 00 00  00 00 00 00 00 00 00 00
00 00 00 00 00 00 00 00  00 00 00 00 00 00 00 00
00 00 00 00 00 00 00 00  00 00 00 00 00 00 00 00
00 00 00 00 00 00 00 00  00 00 00 00 00 00 00 00
00 00 00 00 00 00 00 00  00 00 00 00 00 00 00 00
00 00 00 00 00 00 00 00  00 00 00 00 00 00 00 00
00 00 00 00 00 00 00 00  00 00 00 00 00 00 00 00
00 00 00 00 00 00 00 00  00 00 00 00 00 00 00 00
00 00 00 00 00 00 00 00  00 00 00 00 00 00 00 00
00 00 00 00 00 00 00 00  00 00 00 00 00 00 00 00
00 00 00 00 00 00 00 00  00 00 00 00 00 00 00 00
00 00 00 00 00 00 00 00  00 00 00 00 00 00 00 00
0d 0a 00 00 00 00 00 00  3d 3d 3d 3d 3d 3d 3d 3d
3d 3d 3d 3d 3d 3d 3d 3d  3d 3d 3d 3d 3d 3d 3d 3d
3d 3d 3d 3d 3d 3d 3d 3d  3d 3d 3d 3d 3d 3d 3d 3d
0d 0a 00 00 00 00 00 00  20 20 48 2d 45 78 6f 20
4f 6d 6e 69 2d 43 6f 72  65 3a 20 41 6c 65 70 68
20 45 6e 67 69 6e 65 20  76 30 2e 33 0d 0a 00 00
20 20 4e 65 75 72 61 6c  20 41 72 62 69 74 72 61
74 6f 72 20 28 4e 65 75  72 6f 2d 53 79 6e 63 29
20 41 63 74 69 76 65 0d  0a 00 00 00 00 00 00 00
5b 4f 4b 5d 20 48 61 72  64 77 61 72 65 3a 20 52
4b 33 33 39 39 20 28 4e  61 6e 6f 50 69 20 4d 34
29 0d 0a 00 00 00 00 00  5b 4f 4b 5d 20 42 6f 6f
74 3a 20 41 6c 65 70 68  20 45 6e 67 69 6e 65 20
41 63 74 69 76 65 0d 0a  00 00 00 00 00 00 00 00
5b 4f 4b 5d 20 53 74 61  63 6b 3a 20 49 6e 69 74
69 61 6c 69 7a 65 64 0d  0a 00 00 00 00 00 00 00
5b 4f 4b 5d 20 4d 4d 55  3a 20 45 6e 61 62 6c 65
64 20 28 4d 65 6d 6f 72  79 20 44 6f 6d 69 6e 61
6e 63 65 29 0d 0a 00 00  5b 4f 4b 5d 20 43 61 63
68 65 73 3a 20 4c 31 20  44 2d 43 61 63 68 65 20
2b 20 49 2d 43 61 63 68  65 20 41 63 74 69 76 65
0d 0a 00 00 00 00 00 00  0d 0a 5b 2a 5d 20 49 6e
69 74 69 61 6c 69 7a 69  6e 67 20 4e 65 75 72 61
6c 20 41 72 62 69 74 72  61 74 6f 72 2e 2e 2e 0d
0a 00 00 00 00 00 00 00  5b 4f 4b 5d 20 4e 65 75
72 6f 2d 53 79 6e 63 3a  20 54 69 6e 79 4d 4c 20
45 6e 67 69 6e 65 20 52  65 61 64 79 0d 0a 00 00
5b 4f 4b 5d 20 4d 6f 64  65 6c 3a 20 36 2d 3e 38
2d 3e 34 20 46 65 65 64  66 6f 72 77 61 72 64 20
4e 65 74 77 6f 72 6b 0d  0a 00 00 00 00 00 00 00
5b 4f 4b 5d 20 41 72 69  74 68 6d 65 74 69 63 3a
20 46 69 78 65 64 2d 50  6f 69 6e 74 20 51 31 36
2e 31 36 0d 0a 00 00 00  5b 2a 5d 20 56 61 6c 69
64 61 74 69 6e 67 20 6e  65 75 72 61 6c 20 77 65
69 67 68 74 73 20 69 6e  74 65 67 72 69 74 79 2e
2e 2e 0d 0a 00 00 00 00  20 20 20 20 45 78 70 65
63 74 65 64 20 43 52 43  3a 20 30 78 00 00 00 00
0d 0a 20 20 20 20 41 63  74 75 61 6c 20 43 52 43
3a 20 20 20 30 78 00 00  5b 4f 4b 5d 20 4e 65 75
72 61 6c 20 77 65 69 67  68 74 73 20 69 6e 74 65
67 72 69 74 79 20 76 65  72 69 66 69 65 64 0d 0a
00 00 00 00 00 00 00 00  5b 57 41 52 4e 5d 20 4e
65 75 72 61 6c 20 77 65  69 67 68 74 73 20 43 52
43 20 6d 69 73 6d 61 74  63 68 20 28 63 6f 6e 74
69 6e 75 69 6e 67 20 61  6e 79 77 61 79 29 0d 0a
00 00 00 00 00 00 00 00  5b 21 21 5d 20 4e 65 75
72 6f 2d 53 79 6e 63 3a  20 49 6e 69 74 69 61 6c
69 7a 61 74 69 6f 6e 20  46 61 69 6c 65 64 0d 0a
00 00 00 00 00 00 00 00  5b 42 45 41 43 4f 4e 5d
20 41 20 2d 20 43 52 43  20 63 68 65 63 6b 20 63
6f 6d 70 6c 65 74 65 0d  0a 00 00 00 00 00 00 00
5b 2a 5d 20 49 6e 69 74  69 61 6c 69 7a 69 6e 67
20 54 65 6c 65 6d 65 74  72 79 20 53 79 73 74 65
6d 2e 2e 2e 0d 0a 00 00  5b 42 45 41 43 4f 4e 5d
20 42 20 2d 20 42 65 66  6f 72 65 20 74 65 6c 65
6d 65 74 72 79 20 69 6e  69 74 0d 0a 00 00 00 00
5b 42 45 41 43 4f 4e 5d  20 43 20 2d 20 41 66 74
65 72 20 74 65 6c 65 6d  65 74 72 79 20 69 6e 69
74 0d 0a 00 00 00 00 00  5b 4f 4b 5d 20 54 65 6c
65 6d 65 74 72 79 3a 20  50 4d 55 20 43 79 63 6c
65 20 43 6f 75 6e 74 65  72 20 45 6e 61 62 6c 65
64 0d 0a 00 00 00 00 00  5b 4f 4b 5d 20 54 65 6c
65 6d 65 74 72 79 3a 20  52 65 61 6c 2d 74 69 6d
65 20 4d 65 74 72 69 63  73 20 41 63 74 69 76 65
0d 0a 00 00 00 00 00 00  5b 42 45 41 43 4f 4e 5d
20 44 20 2d 20 42 65 66  6f 72 65 20 6d 65 6e 75
0d 0a 00 00 00 00 00 00  0d 0a 3d 3d 3d 3d 3d 3d
3d 3d 3d 3d 3d 3d 3d 3d  3d 3d 3d 3d 3d 3d 3d 3d
3d 3d 3d 3d 3d 3d 3d 3d  3d 3d 3d 3d 3d 3d 3d 3d
3d 3d 0d 0a 00 00 00 00  20 20 48 2d 45 78 6f 20
4f 6d 6e 69 2d 43 6f 72  65 3a 20 4f 70 65 72 61
74 69 6f 6e 61 6c 0d 0a  00 00 00 00 00 00 00 00
20 20 41 64 61 70 74 69  76 65 20 4e 65 75 72 61
6c 20 46 61 62 72 69 63  20 52 65 61 64 79 0d 0a
00 00 00 00 00 00 00 00  5b 42 45 41 43 4f 4e 5d
20 45 20 2d 20 4d 65 6e  75 20 73 74 61 72 74 0d
0a 00 00 00 00 00 00 00  0d 0a 53 65 6c 65 63 74
20 6d 6f 64 65 3a 0d 0a  00 00 00 00 00 00 00 00
20 20 5b 31 5d 20 4e 65  75 72 61 6c 20 41 72 62
69 74 72 61 74 6f 72 20  44 65 6d 6f 0d 0a 00 00
20 20 5b 32 5d 20 48 65  61 72 74 62 65 61 74 20
53 74 61 62 69 6c 69 74  79 20 54 65 73 74 0d 0a
00 00 00 00 00 00 00 00  20 20 5b 33 5d 20 45 63
68 6f 20 4d 6f 64 65 0d  0a 00 00 00 00 00 00 00
0d 0a 3e 20 00 00 00 00  0d 0a 0d 0a 00 00 00 00
0d 0a 5b 2a 5d 20 45 6e  74 65 72 69 6e 67 20 45
63 68 6f 20 4d 6f 64 65  0d 0a 3e 20 00 00 00 00
5b 2a 5d 20 45 63 68 6f  20 4d 6f 64 65 20 41 63
74 69 76 65 0d 0a 3e 20  00 00 00 00 00 00 00 00
5b 2a 5d 20 52 75 6e 6e  69 6e 67 20 4e 65 75 72
61 6c 20 41 72 62 69 74  72 61 74 6f 72 20 44 65
6d 6f 2e 2e 2e 0d 0a 00  5b 2a 5d 20 50 72 65 73
73 20 53 50 41 43 45 20  74 6f 20 72 75 6e 20 69
6e 66 65 72 65 6e 63 65  2c 20 27 71 27 20 74 6f
20 71 75 69 74 0d 0a 0d  0a 00 00 00 00 00 00 00
0d 0a 2d 2d 2d 20 49 74  65 72 61 74 69 6f 6e 20
00 00 00 00 00 00 00 00  20 2d 2d 2d 0d 0a 00 00
5b 54 45 4c 45 4d 45 54  52 59 5d 0d 0a 00 00 00
20 20 43 50 55 20 4c 6f  61 64 3a 20 00 00 00 00
25 0d 0a 00 00 00 00 00  20 20 4c 32 20 4c 61 74
65 6e 63 79 3a 20 00 00  20 75 73 0d 0a 00 00 00
20 20 4d 65 6d 6f 72 79  3a 20 00 00 00 00 00 00
20 20 54 68 65 72 6d 61  6c 3a 20 00 00 00 00 00
5b 4e 45 55 52 41 4c 20  49 4e 46 45 52 45 4e 43
45 5d 0d 0a 00 00 00 00  20 20 54 61 73 6b 20 50
72 69 6f 72 69 74 79 3a  20 00 00 00 00 00 00 00
20 20 4d 69 67 72 61 74  69 6f 6e 20 48 69 6e 74
3a 20 00 00 00 00 00 00  53 54 41 59 0d 0a 00 00
4d 49 47 52 41 54 45 5f  48 49 47 48 5f 50 45 52
46 0d 0a 00 00 00 00 00  4d 49 47 52 41 54 45 5f
4c 4f 57 5f 50 4f 57 45  52 0d 0a 00 00 00 00 00
20 20 50 6f 77 65 72 20  53 74 61 74 65 3a 20 00
20 20 54 72 75 73 74 20  53 63 6f 72 65 3a 20 00
0d 0a 5b 41 43 54 49 4f  4e 5d 20 00 00 00 00 00
4d 69 67 72 61 74 69 6e  67 20 74 61 73 6b 20 74
6f 20 68 69 67 68 2d 70  65 72 66 6f 72 6d 61 6e
63 65 20 6e 6f 64 65 0d  0a 00 00 00 00 00 00 00
4d 69 67 72 61 74 69 6e  67 20 74 61 73 6b 20 74
6f 20 6c 6f 77 2d 70 6f  77 65 72 20 6e 6f 64 65
0d 0a 00 00 00 00 00 00  5b 41 43 54 49 4f 4e 5d
20 45 6e 74 65 72 69 6e  67 20 54 55 52 42 4f 20
6d 6f 64 65 20 28 68 69  67 68 20 6c 6f 61 64 20
70 72 65 64 69 63 74 65  64 29 0d 0a 00 00 00 00
5b 41 43 54 49 4f 4e 5d  20 45 6e 74 65 72 69 6e
67 20 53 4c 45 45 50 20  6d 6f 64 65 20 28 6c 6f
77 20 6c 6f 61 64 20 70  72 65 64 69 63 74 65 64
29 0d 0a 00 00 00 00 00  0d 0a 5b 2a 5d 20 45 78
69 74 69 6e 67 20 64 65  6d 6f 2e 2e 2e 0d 0a 00
0d 0a 45 63 68 6f 20 6d  6f 64 65 2e 20 54 79 70
65 20 73 6f 6d 65 74 68  69 6e 67 2e 2e 2e 0d 0a
3e 20 00 00 00 00 00 00  53 4c 45 45 50 00 00 00
49 44 4c 45 00 00 00 00  41 43 54 49 56 45 00 00
54 55 52 42 4f 00 00 00  5b 2a 5d 20 48 65 61 72
74 62 65 61 74 3a 20 49  6e 69 74 69 61 6c 69 7a
69 6e 67 20 50 4d 55 2e  2e 2e 0d 0a 00 00 00 00
5b 2a 5d 20 48 65 61 72  74 62 65 61 74 3a 20 49
6e 69 74 69 61 6c 20 63  79 63 6c 65 73 20 3d 20
30 78 00 00 00 00 00 00  5b 4f 4b 5d 20 48 65 61
72 74 62 65 61 74 3a 20  50 4d 55 20 69 6e 69 74
69 61 6c 69 7a 65 64 0d  0a 00 00 00 00 00 00 00
0d 0a 2d 2d 2d 20 48 65  61 72 74 62 65 61 74 20
53 74 61 74 69 73 74 69  63 73 20 2d 2d 2d 0d 0a
00 00 00 00 00 00 00 00  54 6f 74 61 6c 20 62 65
61 74 73 3a 20 00 00 00  4d 69 6e 20 69 6e 74 65
72 76 61 6c 3a 20 00 00  20 63 79 63 6c 65 73 0d
0a 00 00 00 00 00 00 00  4d 61 78 20 69 6e 74 65
72 76 61 6c 3a 20 00 00  4d 61 78 20 6a 69 74 74
65 72 3a 20 00 00 00 00  41 76 67 20 69 6e 74 65
72 76 61 6c 3a 20 00 00  43 68 61 6f 73 20 6d 6f
64 65 3a 20 41 43 54 49  56 45 0d 0a 00 00 00 00
2d 2d 2d 2d 2d 2d 2d 2d  2d 2d 2d 2d 2d 2d 2d 2d
2d 2d 2d 2d 2d 2d 2d 2d  2d 2d 2d 2d 0d 0a 0d 0a
00 00 00 00 00 00 00 00  0d 0a 5b 2a 5d 20 45 6e
74 65 72 69 6e 67 20 48  65 61 72 74 62 65 61 74
20 4d 6f 64 65 0d 0a 00  5b 2a 5d 20 49 6e 74 65
72 76 61 6c 3a 20 31 30  30 6d 73 20 28 31 35 30
4d 20 63 79 63 6c 65 73  20 40 20 31 2e 35 47 48
7a 29 0d 0a 00 00 00 00  5b 2a 5d 20 50 72 65 73
73 20 43 74 72 6c 2b 43  20 74 6f 20 65 78 69 74
0d 0a 0d 0a 00 00 00 00  42 45 41 54 20 00 00 00
20 7c 20 43 79 63 6c 65  73 3a 20 00 00 00 00 00
20 7c 20 4a 69 74 74 65  72 3a 20 00 00 00 00 00
5b 43 48 41 4f 53 5d 20  49 6e 6a 65 63 74 69 6e
67 20 69 6e 73 74 61 62  69 6c 69 74 79 2e 2e 2e
0d 0a 00 00 00 00 00 00  0d 0a 5b 2a 5d 20 48 65
61 72 74 62 65 61 74 20  73 74 6f 70 70 65 64 20
62 79 20 75 73 65 72 0d  0a 00 00 00 00 00 00 00
55 4e 4b 4e 4f 57 4e 00  7b 22 6c 65 76 65 6c 22
3a 22 00 00 00 00 00 00  22 2c 22 63 6f 6d 70 6f
6e 65 6e 74 22 3a 22 00  22 2c 22 6d 65 73 73 61
67 65 22 3a 22 00 00 00  22 7d 0d 0a 00 00 00 00
7b 22 6c 65 76 65 6c 22  3a 22 50 45 52 46 22 2c
22 6d 65 74 72 69 63 22  3a 22 00 00 00 00 00 00
22 2c 22 76 61 6c 75 65  22 3a 00 00 00 00 00 00
7d 0d 0a 00 00 00 00 00  22 2c 22 74 69 6d 65 73
74 61 6d 70 22 3a 00 00  49 4e 46 4f 00 00 00 00
57 41 52 4e 00 00 00 00  45 52 52 4f 52 00 00 00
50 45 52 46 00 00 00 00  44 45 42 55 47 00 00 00
00 00 18 ff 00 c2 01 00  00 00 00 00 01 00 00 00
32 00 00 00 00 00 00 00  28 28 08 02 00 00 00 00
30 28 08 02 00 00 00 00  38 28 08 02 00 00 00 00
40 28 08 02 00 00 00 00  00 00 00 00 00 00 00 00
30 31 32 33 34 35 36 37  38 39 41 42 43 44 45 46
00 00 00 00 00 00 00 00  00 00 00 00 00 00 00 00
1f 85 eb 51 d3 4d 62 10  1f 85 eb 51 1f 85 eb 51
fb ff ff ff fa ff ff ff  fb ff ff ff fb ff ff ff
ff ff ff ff ff ff ff ff  00 00 00 00 00 00 00 00
01 00 00 00 00 00 00 00  01 00 00 00 00 00 00 00
00 00 02 00 00 00 ff ff  00 00 01 00 00 00 00 00
00 00 01 00 00 00 ff ff  00 00 00 00 00 00 01 00
00 00 01 00 00 00 02 00  00 00 ff ff 00 00 01 00
00 00 00 00 00 00 01 00  00 00 ff ff 00 00 00 00
00 00 ff ff 00 00 01 00  00 00 02 00 00 00 ff ff
00 00 01 00 00 00 00 00  00 00 01 00 00 00 ff ff
00 00 00 00 00 00 ff ff  00 00 01 00 00 00 02 00
00 00 ff ff 00 00 01 00  00 00 00 00 00 00 01 00
00 00 01 00 00 00 00 00  00 00 ff ff 00 00 01 00
00 00 02 00 00 00 ff ff  00 00 01 00 00 00 00 00
00 00 ff ff 00 00 01 00  00 00 00 00 00 00 ff ff
00 00 01 00 00 00 02 00  00 00 ff ff 00 00 01 00
00 00 00 00 00 00 00 00  00 00 00 00 00 00 00 00
00 00 00 00 00 00 00 00  00 00 00 00 00 00 00 00
00 00 01 00 00 00 ff ff  00 00 01 00 00 00 00 00
00 00 ff ff 00 00 01 00  00 00 00 00 00 00 01 00
00 00 01 00 00 00 00 00  00 00 ff ff 00 00 01 00
00 00 00 00 00 00 01 00  00 00 01 00 00 00 ff ff
00 00 01 00 00 00 ff ff  00 00 00 00 00 00 01 00
00 00 ff ff 00 00 00 00  00 00 01 00 00 00 01 00
00 00 00 00 00 00 01 00  00 00 ff ff 00 00 00 00
00 00 01 00 00 00 00 00  00 00 01 00 00 00 ff ff
00 00 00 00 00 00 00 00  00 00 00 00 00 00 00 00
00 00 00 00 96 30 07 77  2c 61 0e ee ba 51 09 99
19 c4 6d 07 8f f4 6a 70  35 a5 63 e9 a3 95 64 9e
32 88 db 0e a4 b8 dc 79  1e e9 d5 e0 88 d9 d2 97
2b 4c b6 09 bd 7c b1 7e  07 2d b8 e7 91 1d bf 90
64 10 b7 1d f2 20 b0 6a  48 71 b9 f3 de 41 be 84
7d d4 da 1a eb e4 dd 6d  51 b5 d4 f4 c7 85 d3 83
56 98 6c 13 c0 a8 6b 64  7a f9 62 fd ec c9 65 8a
4f 5c 01 14 d9 6c 06 63  63 3d 0f fa f5 0d 08 8d
c8 20 6e 3b 5e 10 69 4c  e4 41 60 d5 72 71 67 a2
d1 e4 03 3c 47 d4 04 4b  fd 85 0d d2 6b b5 0a a5
fa a8 b5 35 6c 98 b2 42  d6 c9 bb db 40 f9 bc ac
e3 6c d8 32 75 5c df 45  cf 0d d6 dc 59 3d d1 ab
ac 30 d9 26 3a 00 de 51  80 51 d7 c8 16 61 d0 bf
b5 f4 b4 21 23 c4 b3 56  99 95 ba cf 0f a5 bd b8
9e b8 02 28 08 88 05 5f  b2 d9 0c c6 24 e9 0b b1
87 7c 6f 2f 11 4c 68 58  ab 1d 61 c1 3d 2d 66 b6
90 41 dc 76 06 71 db 01  bc 20 d2 98 2a 10 d5 ef
89 85 b1 71 1f b5 b6 06  a5 e4 bf 9f 33 d4 b8 e8
a2 c9 07 78 34 f9 00 0f  8e a8 09 96 18 98 0e e1
bb 0d 6a 7f 2d 3d 6d 08  97 6c 64 91 01 5c 63 e6
f4 51 6b 6b 62 61 6c 1c  d8 30 65 85 4e 00 62 f2
ed 95 06 6c 7b a5 01 1b  c1 f4 08 82 57 c4 0f f5
c6 d9 b0 65 50 e9 b7 12  ea b8 be 8b 7c 88 b9 fc
df 1d dd 62 49 2d da 15  f3 7c d3 8c 65 4c d4 fb
58 61 b2 4d ce 51 b5 3a  74 00 bc a3 e2 30 bb d4
41 a5 df 4a d7 95 d8 3d  6d c4 d1 a4 fb f4 d6 d3
6a e9 69 43 fc d9 6e 34  46 88 67 ad d0 b8 60 da
73 2d 04 44 e5 1d 03 33  5f 4c 0a aa c9 7c 0d dd
3c 71 05 50 aa 41 02 27  10 10 0b be 86 20 0c c9
25 b5 68 57 b3 85 6f 20  09 d4 66 b9 9f e4 61 ce
0e f9 de 5e 98 c9 d9 29  22 98 d0 b0 b4 a8 d7 c7
17 3d b3 59 81 0d b4 2e  3b 5c bd b7 ad 6c ba c0
20 83 b8 ed b6 b3 bf 9a  0c e2 b6 03 9a d2 b1 74
39 47 d5 ea af 77 d2 9d  15 26 db 04 83 16 dc 73
12 0b 63 e3 84 3b 64 94  3e 6a 6d 0d a8 5a 6a 7a
0b cf 0e e4 9d ff 09 93  27 ae 00 0a b1 9e 07 7d
44 93 0f f0 d2 a3 08 87  68 f2 01 1e fe c2 06 69
5d 57 62 f7 cb 67 65 80  71 36 6c 19 e7 06 6b 6e
76 1b d4 fe e0 2b d3 89  5a 7a da 10 cc 4a dd 67
6f df b9 f9 f9 ef be 8e  43 be b7 17 d5 8e b0 60
e8 a3 d6 d6 7e 93 d1 a1  c4 c2 d8 38 52 f2 df 4f
f1 67 bb d1 67 57 bc a6  dd 06 b5 3f 4b 36 b2 48
da 2b 0d d8 4c 1b 0a af  f6 4a 03 36 60 7a 04 41
c3 ef 60 df 55 df 67 a8  ef 8e 6e 31 79 be 69 46
8c b3 61 cb 1a 83 66 bc  a0 d2 6f 25 36 e2 68 52
95 77 0c cc 03 47 0b bb  b9 16 02 22 2f 26 05 55
be 3b ba c5 28 0b bd b2  92 5a b4 2b 04 6a b3 5c
a7 ff d7 c2 31 cf d0 b5  8b 9e d9 2c 1d ae de 5b
b0 c2 64 9b 26 f2 63 ec  9c a3 6a 75 0a 93 6d 02
a9 06 09 9c 3f 36 0e eb  85 67 07 72 13 57 00 05
82 4a bf 95 14 7a b8 e2  ae 2b b1 7b 38 1b b6 0c
9b 8e d2 92 0d be d5 e5  b7 ef dc 7c 21 df db 0b
d4 d2 d3 86 42 e2 d4 f1  f8 b3 dd 68 6e 83 da 1f
cd 16 be 81 5b 26 b9 f6  e1 77 b0 6f 77 47 b7 18
e6 5a 08 88 70 6a 0f ff  ca 3b 06 66 5c 0b 01 11
ff 9e 65 8f 69 ae 62 f8  d3 ff 6b 61 45 cf 6c 16
78 e2 0a a0 ee d2 0d d7  54 83 04 4e c2 b3 03 39
61 26 67 a7 f7 16 60 d0  4d 47 69 49 db 77 6e 3e
4a 6a d1 ae dc 5a d6 d9  66 0b df 40 f0 3b d8 37
53 ae bc a9 c5 9e bb de  7f cf b2 47 e9 ff b5 30
1c f2 bd bd 8a c2 ba ca  30 93 b3 53 a6 a3 b4 24
05 36 d0 ba 93 06 d7 cd  29 57 de 54 bf 67 d9 23
2e 7a 66 b3 b8 4a 61 c4  02 1b 68 5d 94 2b 6f 2a
37 be 0b b4 a1 8e 0c c3  1b df 05 5a 8d ef 02 2d
f8 2a 08 02 00 00 00 00  00 2b 08 02 00 00 00 00
08 2b 08 02 00 00 00 00  10 2b 08 02 00 00 00 00
18 2b 08 02 00 00 00 00  00 00 00 00 00 00 00 00
00 00 00 00 00 00 00 00  00 00 00 00 00 00 00 00
00 00 00 00 00 00 00 00  00 00 00 00 00 00 00 00
00 00 00 00 00 00 00 00  00 00 00 00 00 00 00 00
00 00 00 00 00 00 00 00  00 00 00 00 00 00 00 00
00 00 00 00 00 00 00 00  00 00 00 00 00 00 00 00
00 00 00 00 00 00 00 00  00 00 00 00 00 00 00 00
00 00 00 00 00 00 00 00  00 00 00 00 00 00 00 00
00 00 00 00 00 00 00 00  00 00 00 00 00 00 00 00
00 00 00 00 00 00 00 00  00 00 00 00 00 00 00 00
00 00 00 00 00 00 00 00  00 00 00 00 00 00 00 00
00 00 00 00 00 00 00 00  00 00 00 00 00 00 00 00
00 00 00 00 00 00 00 00  00 00 00 00 00 00 00 00
00 00 00 00 00 00 00 00  00 00 00 00 00 00 00 00
00 00 00 00 00 00 00 00  00 00 00 00 00 00 00 00
00 00 00 00 00 00 00 00  00 00 00 00 00 00 00 00
00 00 00 00 00 00 00 00  00 00 00 00 00 00 00 00
00 00 00 00 00 00 00 00  00 00 00 00 00 00 00 00
00 00 00 00 00 00 00 00  00 00 00 00 00 00 00 00
00 00 00 00 00 00 00 00  00 00 00 00 00 00 00 00
00 00 00 00 00 00 00 00  00 00 00 00 00 00 00 00
00 00 00 00 00 00 00 00  00 00 00 00 00 00 00 00
00 00 00 00 00 00 00 00  00 00 00 00 00 00 00 00
00 00 00 00 00 00 00 00  00 00 00 00 00 00 00 00
00 00 00 00 00 00 00 00  00 00 00 00 00 00 00 00
00 00 00 00 00 00 00 00  00 00 00 00 00 00 00 00
00 00 00 00 00 00 00 00  00 00 00 00 00 00 00 00
00 00 00 00 00 00 00 00  00 00 00 00 00 00 00 00
00 00 00 00 00 00 00 00  00 00 00 00 00 00 00 00
00 00 00 00 00 00 00 00  00 00 00 00 00 00 00 00
00 00 00 00 00 00 00 00  00 00 00 00 00 00 00 00
00 00 00 00 00 00 00 00  00 00 00 00 00 00 00 00
00 00 00 00 00 00 00 00  00 00 00 00 00 00 00 00
00 00 00 00 00 00 00 00  00 00 00 00 00 00 00 00
00 00 00 00 00 00 00 00  00 00 00 00 00 00 00 00
00 00 00 00 00 00 00 00  00 00 00 00 00 00 00 00
00 00 00 00 00 00 00 00  00 00 00 00 00 00 00 00
00 00 00 00 00 00 00 00  00 00 00 00 00 00 00 00
00 00 00 00 00 00 00 00  00 00 00 00 00 00 00 00
00 00 00 00 00 00 00 00  00 00 00 00 00 00 00 00
00 00 00 00 00 00 00 00  00 00 00 00 00 00 00 00
00 00 00 00 00 00 00 00  00 00 00 00 00 00 00 00
00 00 00 00 00 00 00 00  00 00 00 00 00 00 00 00
00 00 00 00 00 00 00 00  00 00 00 00 00 00 00 00
00 00 00 00 00 00 00 00  00 00 00 00 00 00 00 00
00 00 00 00 00 00 00 00  00 00 00 00 00 00 00 00
00 00 00 00 00 00 00 00  00 00 00 00 00 00 00 00
00 00 00 00 00 00 00 00  00 00 00 00 00 00 00 00
00 00 00 00 00 00 00 00  00 00 00 00 00 00 00 00
00 00 00 00 00 00 00 00  00 00 00 00 00 00 00 00
00 00 00 00 00 00 00 00  00 00 00 00 00 00 00 00
00 00 00 00 00 00 00 00  00 00 00 00 00 00 00 00
00 00 00 00 00 00 00 00  00 00 00 00 00 00 00 00
00 00 00 00 00 00 00 00  00 00 00 00 00 00 00 00
00 00 00 00 00 00 00 00  00 00 00 00 00 00 00 00
00 00 00 00 00 00 00 00  00 00 00 00 00 00 00 00
00 00 00 00 00 00 00 00  00 00 00 00 00 00 00 00
00 00 00 00 00 00 00 00  00 00 00 00 00 00 00 00
00 00 00 00 00 00 00 00  00 00 00 00 00 00 00 00
00 00 00 00 00 00 00 00  00 00 00 00 00 00 00 00
00 00 00 00 00 00 00 00  00 00 00 00 00 00 00 00
00 00 00 00 00 00 00 00  00 00 00 00 00 00 00 00
00 00 00 00 00 00 00 00  00 00 00 00 00 00 00 00
00 00 00 00 00 00 00 00  00 00 00 00 00 00 00 00
00 00 00 00 00 00 00 00  00 00 00 00 00 00 00 00
00 00 00 00 00 00 00 00  00 00 00 00 00 00 00 00
00 00 00 00 00 00 00 00  00 00 00 00 00 00 00 00
00 00 00 00 00 00 00 00  00 00 00 00 00 00 00 00
00 00 00 00 00 00 00 00  00 00 00 00 00 00 00 00
00 00 00 00 00 00 00 00  00 00 00 00 00 00 00 00
00 00 00 00 00 00 00 00  00 00 00 00 00 00 00 00
00 00 00 00 00 00 00 00  00 00 00 00 00 00 00 00
00 00 00 00 00 00 00 00  00 00 00 00 00 00 00 00
00 00 00 00 00 00 00 00  00 00 00 00 00 00 00 00
00 00 00 00 00 00 00 00  00 00 00 00 00 00 00 00
00 00 00 00 00 00 00 00  00 00 00 00 00 00 00 00
00 00 00 00 00 00 00 00  00 00 00 00 00 00 00 00
00 00 00 00 00 00 00 00  00 00 00 00 00 00 00 00
00 00 00 00 00 00 00 00  00 00 00 00 00 00 00 00
00 00 00 00 00 00 00 00  00 00 00 00 00 00 00 00
00 00 00 00 00 00 00 00  00 00 00 00 00 00 00 00
00 00 00 00 00 00 00 00  00 00 00 00 00 00 00 00
00 00 00 00 00 00 00 00  00 00 00 00 00 00 00 00
00 00 00 00 00 00 00 00  00 00 00 00 00 00 00 00
00 00 00 00 00 00 00 00  00 00 00 00 00 00 00 00
00 00 00 00 00 00 00 00  00 00 00 00 00 00 00 00
00 00 00 00 00 00 00 00  00 00 00 00 00 00 00 00
00 00 00 00 00 00 00 00  00 00 00 00 00 00 00 00
00 00 00 00 00 00 00 00  00 00 00 00 00 00 00 00
00 00 00 00 00 00 00 00  00 00 00 00 00 00 00 00
00 00 00 00 00 00 00 00  00 00 00 00 00 00 00 00
00 00 00 00 00 00 00 00  00 00 00 00 00 00 00 00
00 00 00 00 00 00 00 00  00 00 00 00 00 00 00 00
00 00 00 00 00 00 00 00  00 00 00 00 00 00 00 00
00 00 00 00 00 00 00 00  00 00 00 00 00 00 00 00
00 00 00 00 00 00 00 00  00 00 00 00 00 00 00 00
00 00 00 00 00 00 00 00  00 00 00 00 00 00 00 00
00 00 00 00 00 00 00 00  00 00 00 00 00 00 00 00
00 00 00 00 00 00 00 00  00 00 00 00 00 00 00 00
00 00 00 00 00 00 00 00  00 00 00 00 00 00 00 00
00 00 00 00 00 00 00 00  00 00 00 00 00 00 00 00
00 00 00 00 00 00 00 00  00 00 00 00 00 00 00 00
00 00 00 00 00 00 00 00  00 00 00 00 00 00 00 00
00 00 00 00 00 00 00 00  00 00 00 00 00 00 00 00
00 00 00 00 00 00 00 00  00 00 00 00 00 00 00 00
00 00 00 00 00 00 00 00  00 00 00 00 00 00 00 00
00 00 00 00 00 00 00 00  00 00 00 00 00 00 00 00
00 00 00 00 00 00 00 00  00 00 00 00 00 00 00 00
00 00 00 00 00 00 00 00  00 00 00 00 00 00 00 00
00 00 00 00 00 00 00 00  00 00 00 00 00 00 00 00
00 00 00 00 00 00 00 00  00 00 00 00 00 00 00 00
00 00 00 00 00 00 00 00  00 00 00 00 00 00 00 00
00 00 00 00 00 00 00 00  00 00 00 00 00 00 00 00
00 00 00 00 00 00 00 00  00 00 00 00 00 00 00 00
00 00 00 00 00 00 00 00  00 00 00 00 00 00 00 00
00 00 00 00 00 00 00 00  00 00 00 00 00 00 00 00
00 00 00 00 00 00 00 00  00 00 00 00 00 00 00 00
00 00 00 00 00 00 00 00  00 00 00 00 00 00 00 00
00 00 00 00 00 00 00 00  00 00 00 00 00 00 00 00
00 00 00 00 00 00 00 00  00 00 00 00 00 00 00 00
00 00 00 00 00 00 00 00  00 00 00 00 00 00 00 00
00 00 00 00 00 00 00 00  00 00 00 00 00 00 00 00
00 00 00 00 00 00 00 00  00 00 00 00 00 00 00 00
00 00 00 00 00 00 00 00  00 00 00 00 00 00 00 00
00 00 00 00 00 00 00 00  00 00 00 00 00 00 00 00
00 00 00 00 00 00 00 00  00 00 00 00 00 00 00 00
00 00 00 00 00 00 00 00  00 00 00 00 00 00 00 00
00 00 00 00 00 00 00 00  00 00 00 00 00 00 00 00
00 00 00 00 00 00 00 00  00 00 00 00 00 00 00 00
00 00 00 00 00 00 00 00  00 00 00 00 00 00 00 00
00 00 00 00 00 00 00 00  00 00 00 00 00 00 00 00
00 00 00 00 00 00 00 00  00 00 00 00 00 00 00 00
00 00 00 00 00 00 00 00  00 00 00 00 00 00 00 00
00 00 00 00 00 00 00 00  00 00 00 00 00 00 00 00
00 00 00 00 00 00 00 00  00 00 00 00 00 00 00 00
00 00 00 00 00 00 00 00  00 00 00 00 00 00 00 00
00 00 00 00 00 00 00 00  00 00 00 00 00 00 00 00
00 00 00 00 00 00 00 00  00 00 00 00 00 00 00 00
00 00 00 00 00 00 00 00  00 00 00 00 00 00 00 00
00 00 00 00 00 00 00 00  00 00 00 00 00 00 00 00
00 00 00 00 00 00 00 00  00 00 00 00 00 00 00 00
00 00 00 00 00 00 00 00  00 00 00 00 00 00 00 00
00 00 00 00 00 00 00 00  00 00 00 00 00 00 00 00
00 00 00 00 00 00 00 00  00 00 00 00 00 00 00 00
00 00 00 00 00 00 00 00  00 00 00 00 00 00 00 00
00 00 00 00 00 00 00 00  00 00 00 00 00 00 00 00
00 00 00 00 00 00 00 00  00 00 00 00 00 00 00 00
00 00 00 00 00 00 00 00  00 00 00 00 00 00 00 00
00 00 00 00 00 00 00 00  00 00 00 00 00 00 00 00
00 00 00 00 00 00 00 00  00 00 00 00 00 00 00 00
00 00 00 00 00 00 00 00  00 00 00 00 00 00 00 00
00 00 00 00 00 00 00 00  00 00 00 00 00 00 00 00
00 00 00 00 00 00 00 00  00 00 00 00 00 00 00 00
00 00 00 00 00 00 00 00  00 00 00 00 00 00 00 00
00 00 00 00 00 00 00 00  00 00 00 00 00 00 00 00
00 00 00 00 00 00 00 00  00 00 00 00 00 00 00 00
00 00 00 00 00 00 00 00  00 00 00 00 00 00 00 00
00 00 00 00 00 00 00 00  00 00 00 00 00 00 00 00
00 00 00 00 00 00 00 00  00 00 00 00 00 00 00 00
00 00 00 00 00 00 00 00  00 00 00 00 00 00 00 00
00 00 00 00 00 00 00 00  00 00 00 00 00 00 00 00
00 00 00 00 00 00 00 00  00 00 00 00 00 00 00 00
00 00 00 00 00 00 00 00  00 00 00 00 00 00 00 00
00 00 00 00 00 00 00 00  00 00 00 00 00 00 00 00
00 00 00 00 00 00 00 00  00 00 00 00 00 00 00 00
00 00 00 00 00 00 00 00  00 00 00 00 00 00 00 00
00 00 00 00 00 00 00 00  00 00 00 00 00 00 00 00
00 00 00 00 00 00 00 00  00 00 00 00 00 00 00 00
00 00 00 00 00 00 00 00  00 00 00 00 00 00 00 00
00 00 00 00 00 00 00 00  00 00 00 00 00 00 00 00
00 00 00 00 00 00 00 00  00 00 00 00 00 00 00 00
00 00 00 00 00 00 00 00  00 00 00 00 00 00 00 00
00 00 00 00 00 00 00 00  00 00 00 00 00 00 00 00
00 00 00 00 00 00 00 00  00 00 00 00 00 00 00 00
00 00 00 00 00 00 00 00  00 00 00 00 00 00 00 00
00 00 00 00 00 00 00 00  00 00 00 00 00 00 00 00
00 00 00 00 00 00 00 00  00 00 00 00 00 00 00 00
00 00 00 00 00 00 00 00  00 00 00 00 00 00 00 00
00 00 00 00 00 00 00 00  00 00 00 00 00 00 00 00
00 00 00 00 00 00 00 00  00 00 00 00 00 00 00 00
00 00 00 00 00 00 00 00  00 00 00 00 00 00 00 00
00 00 00 00 00 00 00 00  00 00 00 00 00 00 00 00
00 00 00 00 00 00 00 00  00 00 00 00 00 00 00 00
00 00 00 00 00 00 00 00  00 00 00 00 00 00 00 00
00 00 00 00 00 00 00 00  00 00 00 00 00 00 00 00
00 00 00 00 00 00 00 00  00 00 00 00 00 00 00 00
00 00 00 00 00 00 00 00  00 00 00 00 00 00 00 00
00 00 00 00 00 00 00 00  00 00 00 00 00 00 00 00
00 00 00 00 00 00 00 00  00 00 00 00 00 00 00 00
00 00 00 00 00 00 00 00  00 00 00 00 00 00 00 00
00 00 00 00 00 00 00 00  00 00 00 00 00 00 00 00
00 00 00 00 00 00 00 00  00 00 00 00 00 00 00 00
00 00 00 00 00 00 00 00  00 00 00 00 00 00 00 00
00 00 00 00 00 00 00 00  00 00 00 00 00 00 00 00
00 00 00 00 00 00 00 00  00 00 00 00 00 00 00 00
00 00 00 00 00 00 00 00  00 00 00 00 00 00 00 00
00 00 00 00 00 00 00 00  00 00 00 00 00 00 00 00
00 00 00 00 00 00 00 00  00 00 00 00 00 00 00 00
00 00 00 00 00 00 00 00  00 00 00 00 00 00 00 00
00 00 00 00 00 00 00 00  00 00 00 00 00 00 00 00
00 00 00 00 00 00 00 00  00 00 00 00 00 00 00 00
00 00 00 00 00 00 00 00  00 00 00 00 00 00 00 00
00 00 00 00 00 00 00 00  00 00 00 00 00 00 00 00
00 00 00 00 00 00 00 00  00 00 00 00 00 00 00 00
00 00 00 00 00 00 00 00  00 00 00 00 00 00 00 00
00 00 00 00 00 00 00 00  00 00 00 00 00 00 00 00
00 00 00 00 00 00 00 00  00 00 00 00 00 00 00 00
00 00 00 00 00 00 00 00  00 00 00 00 00 00 00 00
00 00 00 00 00 00 00 00  00 00 00 00 00 00 00 00
00 00 00 00 00 00 00 00  00 00 00 00 00 00 00 00
00 00 00 00 00 00 00 00  00 00 00 00 00 00 00 00
00 00 00 00 00 00 00 00  00 00 00 00 00 00 00 00
00 00 00 00 00 00 00 00  00 00 00 00 00 00 00 00
00 00 00 00 00 00 00 00  00 00 00 00 00 00 00 00
00 00 00 00 00 00 00 00  00 00 00 00 00 00 00 00
00 00 00 00 00 00 00 00  00 00 00 00 00 00 00 00
00 00 00 00 00 00 00 00  00 00 00 00 00 00 00 00
00 00 00 00 00 00 00 00  00 00 00 00 00 00 00 00
00 00 00 00 00 00 00 00  00 00 00 00 00 00 00 00
00 00 00 00 00 00 00 00  00 00 00 00 00 00 00 00
00 00 00 00 00 00 00 00  00 00 00 00 00 00 00 00
00 00 00 00 00 00 00 00  00 00 00 00 00 00 00 00
00 00 00 00 00 00 00 00  00 00 00 00 00 00 00 00
00 00 00 00 00 00 00 00  00 00 00 00 00 00 00 00
00 00 00 00 00 00 00 00  00 00 00 00 00 00 00 00
00 00 00 00 00 00 00 00  00 00 00 00 00 00 00 00
00 00 00 00 00 00 00 00  00 00 00 00 00 00 00 00
00 00 00 00 00 00 00 00  00 00 00 00 00 00 00 00
00 00 00 00 00 00 00 00  00 00 00 00 00 00 00 00
00 00 00 00 00 00 00 00  00 00 00 00 00 00 00 00
00 00 00 00 00 00 00 00  00 00 00 00 00 00 00 00
00 00 00 00 00 00 00 00  00 00 00 00 00 00 00 00
00 00 00 00 00 00 00 00  00 00 00 00 00 00 00 00
00 00 00 00 00 00 00 00  00 00 00 00 00 00 00 00
00 00 00 00 00 00 00 00  00 00 00 00 00 00 00 00
00 00 00 00 00 00 00 00  00 00 00 00 00 00 00 00
00 00 00 00 00 00 00 00  00 00 00 00 00 00 00 00
00 00 00 00 00 00 00 00  00 00 00 00 00 00 00 00
00 00 00 00 00 00 00 00  00 00 00 00 00 00 00 00
00 00 00 00 00 00 00 00  00 00 00 00 00 00 00 00
00 00 00 00 00 00 00 00  00 00 00 00 00 00 00 00
00 00 00 00 00 00 00 00  00 00 00 00 00 00 00 00
00 00 00 00 00 00 00 00  00 00 00 00 00 00 00 00
00 00 00 00 00 00 00 00  00 00 00 00 00 00 00 00
00 00 00 00 00 00 00 00  00 00 00 00 00 00 00 00
00 00 00 00 00 00 00 00  00 00 00 00 00 00 00 00
00 00 00 00 00 00 00 00  00 00 00 00 00 00 00 00
00 00 00 00 00 00 00 00  00 00 00 00 00 00 00 00
00 00 00 00 00 00 00 00  00 00 00 00 00 00 00 00
00 00 00 00 00 00 00 00  00 00 00 00 00 00 00 00
00 00 00 00 00 00 00 00  00 00 00 00 00 00 00 00
00 00 00 00 00 00 00 00  00 00 00 00 00 00 00 00
00 00 00 00 00 00 00 00  00 00 00 00 00 00 00 00
00 00 00 00 00 00 00 00  00 00 00 00 00 00 00 00
00 00 00 00 00 00 00 00  00 00 00 00 00 00 00 00
00 00 00 00 00 00 00 00  00 00 00 00 00 00 00 00
00 00 00 00 00 00 00 00  00 00 00 00 00 00 00 00
00 00 00 00 00 00 00 00  00 00 00 00 00 00 00 00
00 00 00 00 00 00 00 00  00 00 00 00 00 00 00 00
00 00 00 00 00 00 00 00  00 00 00 00 00 00 00 00
00 00 00 00 00 00 00 00  00 00 00 00 00 00 00 00
00 00 00 00 00 00 00 00  00 00 00 00 00 00 00 00
00 00 00 00 00 00 00 00  00 00 00 00 00 00 00 00
00 00 00 00 00 00 00 00  00 00 00 00 00 00 00 00
00 00 00 00 00 00 00 00  00 00 00 00 00 00 00 00
00 00 00 00 00 00 00 00  00 00 00 00 00 00 00 00
00 00 00 00 00 00 00 00  00 00 00 00 00 00 00 00
00 00 00 00 00 00 00 00  00 00 00 00 00 00 00 00
00 00 00 00 00 00 00 00  00 00 00 00 00 00 00 00
00 00 00 00 00 00 00 00  00 00 00 00 00 00 00 00
00 00 00 00 00 00 00 00  00 00 00 00 00 00 00 00
00 00 00 00 00 00 00 00  00 00 00 00 00 00 00 00
00 00 00 00 00 00 00 00  00 00 00 00 00 00 00 00
00 00 00 00 00 00 00 00  00 00 00 00 00 00 00 00
00 00 00 00 00 00 00 00  00 00 00 00 00 00 00 00
00 00 00 00 00 00 00 00  00 00 00 00 00 00 00 00
00 00 00 00 00 00 00 00  00 00 00 00 00 00 00 00
00 00 00 00 00 00 00 00  00 00 00 00 00 00 00 00
00 00 00 00 00 00 00 00  00 00 00 00 00 00 00 00
00 00 00 00 00 00 00 00  00 00 00 00 00 00 00 00
00 00 00 00 00 00 00 00  00 00 00 00 00 00 00 00
00 00 00 00 00 00 00 00  00 00 00 00 00 00 00 00
00 00 00 00 00 00 00 00  00 00 00 00 00 00 00 00
00 00 00 00 00 00 00 00  00 00 00 00 00 00 00 00
00 00 00 00 00 00 00 00  00 00 00 00 00 00 00 00
00 00 00 00 00 00 00 00  00 00 00 00 00 00 00 00
00 00 00 00 00 00 00 00  00 00 00 00 00 00 00 00
00 00 00 00 00 00 00 00  00 00 00 00 00 00 00 00
00 00 00 00 00 00 00 00  00 00 00 00 00 00 00 00
00 00 00 00 00 00 00 00  00 00 00 00 00 00 00 00
00 00 00 00 00 00 00 00  00 00 00 00 00 00 00 00
00 00 00 00 00 00 00 00  00 00 00 00 00 00 00 00
00 00 00 00 00 00 00 00  00 00 00 00 00 00 00 00
00 00 00 00 00 00 00 00  00 00 00 00 00 00 00 00
00 00 00 00 00 00 00 00  00 00 00 00 00 00 00 00
00 00 00 00 00 00 00 00  00 00 00 00 00 00 00 00
00 00 00 00 00 00 00 00  00 00 00 00 00 00 00 00
00 00 00 00 00 00 00 00  00 00 00 00 00 00 00 00
00 00 00 00 00 00 00 00  00 00 00 00 00 00 00 00
00 00 00 00 00 00 00 00  00 00 00 00 00 00 00 00
00 00 00 00 00 00 00 00  00 00 00 00 00 00 00 00
00 00 00 00 00 00 00 00  00 00 00 00 00 00 00 00
00 00 00 00 00 00 00 00  00 00 00 00 00 00 00 00
00 00 00 00 00 00 00 00  00 00 00 00 00 00 00 00
00 00 00 00 00 00 00 00  00 00 00 00 00 00 00 00
00 00 00 00 00 00 00 00  00 00 00 00 00 00 00 00
00 00 00 00 00 00 00 00  00 00 00 00 00 00 00 00
00 00 00 00 00 00 00 00  00 00 00 00 00 00 00 00
00 00 00 00 00 00 00 00  00 00 00 00 00 00 00 00
00 00 00 00 00 00 00 00  00 00 00 00 00 00 00 00
00 00 00 00 00 00 00 00  00 00 00 00 00 00 00 00
00 00 00 00 00 00 00 00  00 00 00 00 00 00 00 00
00 00 00 00 00 00 00 00  00 00 00 00 00 00 00 00
00 00 00 00 00 00 00 00  00 00 00 00 00 00 00 00
00 00 00 00 00 00 00 00  00 00 00 00 00 00 00 00
00 00 00 00 00 00 00 00  00 00 00 00 00 00 00 00
00 00 00 00 00 00 00 00  00 00 00 00 00 00 00 00
00 00 00 00 00 00 00 00  00 00 00 00 00 00 00 00
00 00 00 00 00 00 00 00  00 00 00 00 00 00 00 00
00 00 00 00 00 00 00 00  00 00 00 00 00 00 00 00
00 00 00 00 00 00 00 00  00 00 00 00 00 00 00 00
00 00 00 00 00 00 00 00  00 00 00 00 00 00 00 00
00 00 00 00 00 00 00 00  00 00 00 00 00 00 00 00
00 00 00 00 00 00 00 00  00 00 00 00 00 00 00 00
00 00 00 00 00 00 00 00  00 00 00 00 00 00 00 00
00 00 00 00 00 00 00 00  00 00 00 00 00 00 00 00
00 00 00 00 00 00 00 00  00 00 00 00 00 00 00 00
00 00 00 00 00 00 00 00  00 00 00 00 00 00 00 00
00 00 00 00 00 00 00 00  00 00 00 00 00 00 00 00
00 00 00 00 00 00 00 00  00 00 00 00 00 00 00 00
00 00 00 00 00 00 00 00  00 00 00 00 00 00 00 00
00 00 00 00 00 00 00 00  00 00 00 00 00 00 00 00
00 00 00 00 00 00 00 00  00 00 00 00 00 00 00 00
00 00 00 00 00 00 00 00  00 00 00 00 00 00 00 00
00 00 00 00 00 00 00 00  00 00 00 00 00 00 00 00
00 00 00 00 00 00 00 00  00 00 00 00 00 00 00 00
00 00 00 00 00 00 00 00  00 00 00 00 00 00 00 00
00 00 00 00 00 00 00 00  00 00 00 00 00 00 00 00
00 00 00 00 00 00 00 00  00 00 00 00 00 00 00 00
00 00 00 00 00 00 00 00  00 00 00 00 00 00 00 00
00 00 00 00 00 00 00 00  00 00 00 00 00 00 00 00
00 00 00 00 00 00 00 00  00 00 00 00 00 00 00 00
00 00 00 00 00 00 00 00  00 00 00 00 00 00 00 00
00 00 00 00 00 00 00 00  00 00 00 00 00 00 00 00
00 00 00 00 00 00 00 00  00 00 00 00 00 00 00 00
00 00 00 00 00 00 00 00  00 00 00 00 00 00 00 00
00 00 00 00 00 00 00 00  00 00 00 00 00 00 00 00
00 00 00 00 00 00 00 00  00 00 00 00 00 00 00 00
00 00 00 00 00 00 00 00  00 00 00 00 00 00 00 00
00 00 00 00 00 00 00 00  00 00 00 00 00 00 00 00
00 00 00 00 00 00 00 00  00 00 00 00 00 00 00 00
00 00 00 00 00 00 00 00  00 00 00 00 00 00 00 00
00 00 00 00 00 00 00 00  00 00 00 00 00 00 00 00
00 00 00 00 00 00 00 00  00 00 00 00 00 00 00 00
00 00 00 00 00 00 00 00  00 00 00 00 00 00 00 00
00 00 00 00 00 00 00 00  00 00 00 00 00 00 00 00
00 00 00 00 00 00 00 00  00 00 00 00 00 00 00 00
00 00 00 00 00 00 00 00  00 00 00 00 00 00 00 00
00 00 00 00 00 00 00 00  00 00 00 00 00 00 00 00
00 00 00 00 00 00 00 00  00 00 00 00 00 00 00 00
00 00 00 00 00 00 00 00  00 00 00 00 00 00 00 00
00 00 00 00 00 00 00 00  00 00 00 00 00 00 00 00
00 00 00 00 00 00 00 00  00 00 00 00 00 00 00 00
00 00 00 00 00 00 00 00  00 00 00 00 00 00 00 00
00 00 00 00 00 00 00 00  00 00 00 00 00 00 00 00
00 00 00 00 00 00 00 00  00 00 00 00 00 00 00 00
00 00 00 00 00 00 00 00  00 00 00 00 00 00 00 00
00 00 00 00 00 00 00 00  00 00 00 00 00 00 00 00
00 00 00 00 00 00 00 00  00 00 00 00 00 00 00 00
00 00 00 00 00 00 00 00  00 00 00 00 00 00 00 00
00 00 00 00 00 00 00 00  00 00 00 00 00 00 00 00
00 00 00 00 00 00 00 00  00 00 00 00 00 00 00 00
00 00 00 00 00 00 00 00  00 00 00 00 00 00 00 00
00 00 00 00 00 00 00 00  00 00 00 00 00 00 00 00
00 00 00 00 00 00 00 00  00 00 00 00 00 00 00 00
00 00 00 00 00 00 00 00  00 00 00 00 00 00 00 00
00 00 00 00 00 00 00 00  00 00 00 00 00 00 00 00
00 00 00 00 00 00 00 00  00 00 00 00 00 00 00 00
00 00 00 00 00 00 00 00  00 00 00 00 00 00 00 00
00 00 00 00 00 00 00 00  00 00 00 00 00 00 00 00
00 00 00 00 00 00 00 00  00 00 00 00 00 00 00 00
00 00 00 00 00 00 00 00  00 00 00 00 00 00 00 00
00 00 00 00 00 00 00 00  00 00 00 00 00 00 00 00
00 00 00 00 00 00 00 00  00 00 00 00 00 00 00 00
00 00 00 00 00 00 00 00  00 00 00 00 00 00 00 00
00 00 00 00 00 00 00 00  00 00 00 00 00 00 00 00
00 00 00 00 00 00 00 00  00 00 00 00 00 00 00 00
00 00 00 00 00 00 00 00  00 00 00 00 00 00 00 00
00 00 00 00 00 00 00 00  00 00 00 00 00 00 00 00
00 00 00 00 00 00 00 00  00 00 00 00 00 00 00 00
00 00 00 00 00 00 00 00  00 00 00 00 00 00 00 00
00 00 00 00 00 00 00 00  00 00 00 00 00 00 00 00
00 00 00 00 00 00 00 00  00 00 00 00 00 00 00 00
00 00 00 00 00 00 00 00  00 00 00 00 00 00 00 00
00 00 00 00 00 00 00 00  00 00 00 00 00 00 00 00
00 00 00 00 00 00 00 00  00 00 00 00 00 00 00 00
00 00 00 00 00 00 00 00  00 00 00 00 00 00 00 00
00 00 00 00 00 00 00 00  00 00 00 00 00 00 00 00
00 00 00 00 00 00 00 00  00 00 00 00 00 00 00 00
00 00 00 00 00 00 00 00  00 00 00 00 00 00 00 00
00 00 00 00 00 00 00 00  00 00 00 00 00 00 00 00
00 00 00 00 00 00 00 00  00 00 00 00 00 00 00 00
00 00 00 00 00 00 00 00  00 00 00 00 00 00 00 00
00 00 00 00 00 00 00 00  00 00 00 00 00 00 00 00
00 00 00 00 00 00 00 00  00 00 00 00 00 00 00 00
00 00 00 00 00 00 00 00  00 00 00 00 00 00 00 00
00 00 00 00 00 00 00 00  00 00 00 00 00 00 00 00
00 00 00 00 00 00 00 00  00 00 00 00 00 00 00 00
00 00 00 00 00 00 00 00  00 00 00 00 00 00 00 00
00 00 00 00 00 00 00 00  00 00 00 00 00 00 00 00
00 00 00 00 00 00 00 00  00 00 00 00 00 00 00 00
00 00 00 00 00 00 00 00  00 00 00 00 00 00 00 00
00 00 00 00 00 00 00 00  00 00 00 00 00 00 00 00
00 00 00 00 00 00 00 00  00 00 00 00 00 00 00 00
00 00 00 00 00 00 00 00  00 00 00 00 00 00 00 00
00 00 00 00 00 00 00 00  00 00 00 00 00 00 00 00
00 00 00 00 00 00 00 00  00 00 00 00 00 00 00 00
00 00 00 00 00 00 00 00  00 00 00 00 00 00 00 00
00 00 00 00 00 00 00 00  00 00 00 00 00 00 00 00
00 00 00 00 00 00 00 00  00 00 00 00 00 00 00 00
00 00 00 00 00 00 00 00  00 00 00 00 00 00 00 00
00 00 00 00 00 00 00 00  00 00 00 00 00 00 00 00
00 00 00 00 00 00 00 00  00 00 00 00 00 00 00 00
00 00 00 00 00 00 00 00  00 00 00 00 00 00 00 00
00 00 00 00 00 00 00 00  00 00 00 00 00 00 00 00
00 00 00 00 00 00 00 00  00 00 00 00 00 00 00 00
00 00 00 00 00 00 00 00  00 00 00 00 00 00 00 00
00 00 00 00 00 00 00 00  00 00 00 00 00 00 00 00
00 00 00 00 00 00 00 00  00 00 00 00 00 00 00 00
00 00 00 00 00 00 00 00  00 00 00 00 00 00 00 00
00 00 00 00 00 00 00 00  00 00 00 00 00 00 00 00
00 00 00 00 00 00 00 00  00 00 00 00 00 00 00 00
00 00 00 00 00 00 00 00  00 00 00 00 00 00 00 00
00 00 00 00 00 00 00 00  00 00 00 00 00 00 00 00
00 00 00 00 00 00 00 00  00 00 00 00 00 00 00 00
00 00 00 00 00 00 00 00  00 00 00 00 00 00 00 00
00 00 00 00 00 00 00 00  00 00 00 00 00 00 00 00
00 00 00 00 00 00 00 00  00 00 00 00 00 00 00 00
00 00 00 00 00 00 00 00  00 00 00 00 00 00 00 00
00 00 00 00 00 00 00 00  00 00 00 00 00 00 00 00
00 00 00 00 00 00 00 00  00 00 00 00 00 00 00 00
00 00 00 00 00 00 00 00  00 00 00 00 00 00 00 00
00 00 00 00 00 00 00 00  00 00 00 00 00 00 00 00
00 00 00 00 00 00 00 00  00 00 00 00 00 00 00 00
00 00 00 00 00 00 00 00  00 00 00 00 00 00 00 00
00 00 00 00 00 00 00 00  00 00 00 00 00 00 00 00
00 00 00 00 00 00 00 00  00 00 00 00 00 00 00 00
00 00 00 00 00 00 00 00  00 00 00 00 00 00 00 00
00 00 00 00 00 00 00 00  00 00 00 00 00 00 00 00
00 00 00 00 00 00 00 00  00 00 00 00 00 00 00 00
00 00 00 00 00 00 00 00  00 00 00 00 00 00 00 00
00 00 00 00 00 00 00 00  00 00 00 00 00 00 00 00
00 00 00 00 00 00 00 00  00 00 00 00 00 00 00 00
00 00 00 00 00 00 00 00  00 00 00 00 00 00 00 00
00 00 00 00 00 00 00 00  00 00 00 00 00 00 00 00
00 00 00 00 00 00 00 00  00 00 00 00 00 00 00 00
00 00 00 00 00 00 00 00  00 00 00 00 00 00 00 00
00 00 00 00 00 00 00 00  00 00 00 00 00 00 00 00
00 00 00 00 00 00 00 00  00 00 00 00 00 00 00 00
00 00 00 00 00 00 00 00  00 00 00 00 00 00 00 00
00 00 00 00 00 00 00 00  00 00 00 00 00 00 00 00
00 00 00 00 00 00 00 00  00 00 00 00 00 00 00 00
00 00 00 00 00 00 00 00  00 00 00 00 00 00 00 00
00 00 00 00 00 00 00 00  00 00 00 00 00 00 00 00
00 00 00 00 00 00 00 00  00 00 00 00 00 00 00 00
00 00 00 00 00 00 00 00  00 00 00 00 00 00 00 00
00 00 00 00 00 00 00 00  00 00 00 00 00 00 00 00
00 00 00 00 00 00 00 00  00 00 00 00 00 00 00 00
00 00 00 00 00 00 00 00  00 00 00 00 00 00 00 00
00 00 00 00 00 00 00 00  00 00 00 00 00 00 00 00
00 00 00 00 00 00 00 00  00 00 00 00 00 00 00 00
00 00 00 00 00 00 00 00  00 00 00 00 00 00 00 00
00 00 00 00 00 00 00 00  00 00 00 00 00 00 00 00
00 00 00 00 00 00 00 00  00 00 00 00 00 00 00 00
00 00 00 00 00 00 00 00  00 00 00 00 00 00 00 00
00 00 00 00 00 00 00 00  00 00 00 00 00 00 00 00
00 00 00 00 00 00 00 00  00 00 00 00 00 00 00 00
00 00 00 00 00 00 00 00  00 00 00 00 00 00 00 00
00 00 00 00 00 00 00 00  00 00 00 00 00 00 00 00
00 00 00 00 00 00 00 00  00 00 00 00 00 00 00 00
00 00 00 00 00 00 00 00  00 00 00 00 00 00 00 00
00 00 00 00 00 00 00 00  00 00 00 00 00 00 00 00
00 00 00 00 00 00 00 00  00 00 00 00 00 00 00 00
00 00 00 00 00 00 00 00  00 00 00 00 00 00 00 00
00 00 00 00 00 00 00 00  00 00 00 00 00 00 00 00
00 00 00 00 00 00 00 00  00 00 00 00 00 00 00 00
00 00 00 00 00 00 00 00  00 00 00 00 00 00 00 00
00 00 00 00 00 00 00 00  00 00 00 00 00 00 00 00
00 00 00 00 00 00 00 00  00 00 00 00 00 00 00 00
00 00 00 00 00 00 00 00  00 00 00 00 00 00 00 00
00 00 00 00 00 00 00 00  00 00 00 00 00 00 00 00
